{
  "7948": "年",
  "8863": "数",
  "8903": "日",
  "9370": "的",
  "9754": "月",
  "11622": "用",
  "12857": "成",
  "13072": "名",
  "13343": "时",
  "14224": "件",
  "14777": "一",
  "14880": "请",
  "15946": "中",
  "16038": "据",
  "16476": "码",
  "16530": "不",
  "16628": "新",
  "16744": "文",
  "16872": "下",
  "17177": "分",
  "17254": "入",
  "17340": "人",
  "17404": "功",
  "17447": "上",
  "17523": "户",
  "17714": "为",
  "17881": "间",
  "17992": "号",
  "18158": "取",
  "18397": "回",
  "18493": "在",
  "18538": "页",
  "18600": "字",
  "18830": "有",
  "18947": "个",
  "19108": "成功",
  "19403": "作",
  "19793": "示",
  "20002": "用户",
  "20074": "数据",
  "20221": "出",
  "20412": "是",
  "20450": "时间",
  "20726": "失",
  "20742": "表",
  "20755": "除",
  "20929": "加",
  "21125": "败",
  "21287": "生",
  "21317": "信",
  "21515": "类",
  "21596": "置",
  "21887": "理",
  "21894": "本",
  "22045": "失败",
  "22226": "息",
  "22243": "行",
  "22382": "定",
  "22418": "改",
  "22697": "市",
  "22704": "期",
  "23031": "以",
  "23081": "修",
  "23305": "元",
  "23384": "方",
  "23656": "录",
  "23836": "区",
  "23990": "单",
  "24045": "�除",
  "24156": "位",
  "24300": "型",
  "24339": "法",
  "24342": "县",
  "24360": "存",
  "24442": "品",
  "24562": "前",
  "24641": "称",
  "25011": "�回",
  "25074": "注",
  "25177": "修改",
  "25511": "值",
  "25710": "输",
  "25807": "建",
  "26232": "能",
  "26288": "大",
  "26355": "例",
  "26381": "度",
  "26606": "始",
  "26898": "文件",
  "26939": "到",
  "27091": "面",
  "27260": "�数",
  "27366": "载",
  "27369": "信息",
  "27442": "点",
  "27487": "��取",
  "27641": "密",
  "27733": "动",
  "27773": "果",
  "28029": "图",
  "28072": "提",
  "28291": "发",
  "28330": "式",
  "28404": "国",
  "28606": "删除",
  "28641": "登",
  "28726": "错",
  "28946": "者",
  "28951": "认",
  "29056": "误",
  "29077": "接",
  "29256": "关",
  "29258": "重",
  "29437": "第",
  "29490": "地",
  "29524": "如",
  "29635": "设",
  "29732": "目",
  "29767": "开",
  "29826": "事",
  "29941": "�数",
  "29991": "名称",
  "30440": "可",
  "30534": "要",
  "30540": "代",
  "30709": "小",
  "30767": "选",
  "30844": "标",
  "30858": "明",
  "30868": "编",
  "30918": "求",
  "31118": "列",
  "31139": "网",
  "31196": "输入",
  "31207": "万",
  "31235": "最",
  "31338": "�建",
  "31526": "返回",
  "31548": "器",
  "31838": "所",
  "31843": "内",
  "31905": "类型",
  "31914": "体",
  "31935": "通",
  "31952": "务",
  "31991": "此",
  "32022": "商",
  "32044": "序",
  "32100": "错误",
  "32108": "化",
  "32320": "消",
  "32376": "否",
  "32463": "保",
  "32555": "使",
  "32571": "次",
  "32648": "机",
  "32664": "对",
  "32665": "参数",
  "32757": "量",
  "32804": "函数",
  "32867": "密码",
  "32876": "查",
  "32948": "部",
  "33071": "性",
  "33108": "和",
  "33126": "更",
  "33447": "后",
  "33477": "证",
  "33872": "题",
  "33956": "确",
  "33983": "格",
  "34187": "了",
  "34204": "于",
  "34230": "金",
  "34317": "公",
  "34324": "午",
  "34657": "円",
  "34718": "片",
  "34794": "空",
  "34859": "请求",
  "35125": "��加",
  "35243": "态",
  "35415": "登录",
  "35551": "管",
  "35568": "主",
  "35727": "天",
  "35926": "自",
  "35946": "我",
  "35987": "全",
  "36171": "今",
  "36295": "页面",
  "36407": "来",
  "36548": "��作",
  "36556": "正",
  "36587": "说",
  "36589": "意",
  "36605": "送",
  "36629": "容",
  "36667": "已",
  "36885": "结",
  "36993": "会",
  "37029": "使用",
  "37474": "段",
  "37509": "�认",
  "37643": "计",
  "37945": "，请",
  "37984": "源",
  "38035": "色",
  "38077": "時",
  "38109": "交",
  "38176": "系",
  "38182": "过",
  "38212": "电",
  "38265": "询",
  "38304": "符",
  "38342": "未",
  "38507": "程",
  "38953": "常",
  "38989": "条",
  "39095": " 下",
  "39165": "当",
  "39352": "管理",
  "39366": "��态",
  "39374": "情",
  "39426": "口",
  "39762": "合",
  "39907": "方法",
  "39953": "车",
  "39973": "实",
  "40027": "组",
  "40090": "操作",
  "40301": "版",
  "40542": "周",
  "40623": "址",
  "40671": " 获取",
  "40814": "记",
  "40820": "二",
  "40916": "同",
  "40952": "业",
  "40981": "权",
  "41146": "其",
  "41299": "进",
  "41321": "试",
  "41362": "验",
  "41406": "料",
  "41683": "传",
  "41932": "述",
  "42067": "集",
  "42140": "多",
  "42192": "无",
  "42223": "员",
  "42278": "报",
  "42411": "他",
  "42468": "無",
  "42855": "添加",
  "43209": "服",
  "43268": "线",
  "43288": "这",
  "43316": "制",
  "43589": " 的",
  "43716": "�始",
  "43720": "�单",
  "43815": "内容",
  "43918": "设置",
  "43959": "生成",
  "44063": "将",
  "44091": "状态",
  "44177": "列表",
  "44290": "处",
  "44372": " 输",
  "44636": "高",
  "44729": "子",
  "44793": "道",
  "44834": "�述",
  "44928": "章",
  "44931": "字段",
  "44934": "手",
  "44956": "库",
  "44991": "三",
  "45139": "提示",
  "45181": "从",
  "45356": "支",
  "45629": "家",
  "45785": "日期",
  "45861": "长",
  "45900": "付",
  "45912": "获取",
  "45918": "秒",
  "45930": "图片",
  "45943": "商品",
  "45995": "路",
  "46100": "代码",
  "46306": "完",
  "46423": "象",
  "46448": "则",
  "46451": "现",
  "46466": " 设",
  "46477": "地址",
  "46485": "保存",
  "46553": "京",
  "46670": "转",
  "46871": "�示",
  "46939": "辑",
  "46944": "一个",
  "47149": "限",
  "47363": "默认",
  "47534": "力",
  "47606": "存在",
  "47685": " 数",
  "47758": " 创建",
  "47764": "学",
  "47815": "外",
  "47872": "调",
  "47874": "服务",
  "47882": "项",
  "47955": "请输入",
  "48309": "北",
  "48391": "字符",
  "48692": "工",
  "48738": "笑",
  "48828": "监",
  "48888": "任",
  "48921": "相",
  "48927": "验证",
  "48934": "微",
  "49026": "册",
  "49082": "联",
  "49111": "平",
  "49185": "增",
  "49187": "听",
  "49238": "解",
  "49567": "等",
  "49828": "得",
  "50007": "更新",
  "50009": "收",
  "50042": " 用户",
  "50102": "选�",
  "50285": "安",
  "50292": "价",
  "50331": " 第",
  "50350": "取消",
  "50366": "藏",
  "50377": "创建",
  "50404": "选择",
  "50410": "订单",
  "50509": "命",
  "50511": "应",
  "50647": "为空",
  "50930": "看",
  "50984": "索",
  "51088": "�始化",
  "51125": "资",
  "51154": "查询",
  "51232": "产",
  "51463": "表示",
  "51575": "串",
  "51827": "布",
  "52129": "原",
  "52183": "知",
  "52334": "级",
  "52510": "水",
  "52526": "上传",
  "52702": "监听",
  "52726": "击",
  "52801": "好",
  "52853": "物",
  "53040": " 文",
  "53054": " 设置",
  "53153": "不能",
  "53222": "放",
  "53356": "亿",
  "53393": "经",
  "53481": "描述",
  "53772": "模",
  "53930": "之",
  "53938": "台",
  "54021": "显示",
  "54039": "州",
  "54387": "配",
  "54542": "处理",
  "54623": "画",
  "54658": "统",
  "54851": " 是",
  "54899": "共",
  "54926": "连",
  "55135": "海",
  "55286": "开始",
  "55338": "所有",
  "55502": "节",
  "55616": " 返回",
  "55806": "退",
  "55865": "間",
  "56006": "比",
  "56007": "问",
  "56137": "至",
  "56278": "备",
  "56568": "你",
  "56652": "黑",
  "56904": " 下午",
  "57019": "编辑",
  "57191": "或",
  "57218": "与",
  "57222": "影",
  "57421": "作者",
  "57443": "话",
  "57452": "视",
  "57553": "读",
  "57555": "告",
  "57566": "美",
  "57621": "事件",
  "57750": "女",
  "57811": "山",
  "58143": " 和",
  "58263": " 生",
  "58362": "需",
  "58364": "复",
  "58405": "手机",
  "58463": "南",
  "58514": "必",
  "58522": "�行",
  "58657": " 分",
  "58695": "中国",
  "58792": "闭",
  "58814": "加载",
  "59074": "城",
  "59105": "用户名",
  "59139": "�性",
  "59151": "结果",
  "59258": "近",
  "59355": "效",
  "59532": "利",
  "59534": "移",
  "59743": "总",
  "59879": "按",
  "59956": "排",
  "59975": "首",
  "60204": "記",
  "60237": "社",
  "60396": "标题",
  "60533": "注意",
  "60548": "完成",
  "60610": "确定",
  "60686": "西",
  "60726": "先",
  "60894": "然",
  "60949": "键",
  "61105": " 名",
  "61149": "周期",
  "61191": "额",
  "61443": "写",
  "61617": "�名",
  "61689": "注册",
  "61755": "签",
  "61991": " 自",
  "62112": "因",
  "62189": "下载",
  "62244": "如果",
  "62262": " 数据",
  "62297": "命周期",
  "62579": " 注",
  "62922": "别",
  "62926": "并",
  "62945": "异",
  "62963": "束",
  "63071": " 修改",
  "63073": " 删除",
  "63079": " 生命周期",
  "63109": "心",
  "63314": "链",
  "63367": "指",
  "63379": "评",
  "63431": "整",
  "63703": "四",
  "63789": "断",
  "63836": "角",
  "63860": " 生命周期函数",
  "63953": "监听页面",
  "64064": "连接",
  "64118": " 上",
  "64205": "消息",
  "64272": "软",
  "64355": "头",
  "64429": "对象",
  "64471": "是否",
  "64473": "邮",
  "64559": "义",
  "64643": "司",
  "64682": "步",
  "64689": "门",
  "64720": "导",
  "64754": "客",
  "64784": "不能为空",
  "64817": "右",
  "64952": "频",
  "65101": "像",
  "65278": "特",
  "65577": "记录",
  "65676": "非",
  "65770": "省",
  "66017": "输出",
  "66078": "造",
  "66187": "姓名",
  "66394": "说明",
  "66558": "字符串",
  "66569": "径",
  "66635": "�试",
  "66833": "详",
  "66886": "验证码",
  "67071": "由",
  "67279": "包",
  "67338": "通过",
  "67364": "东",
  "67831": "论",
  "67949": "当前",
  "68065": "络",
  "68153": "款",
  "68172": "�藏",
  "68262": "支付",
  "68396": "启",
  "68536": "而",
  "68756": "填",
  "68805": "格式",
  "68862": "释",
  "68878": "持",
  "68941": "��索",
  "68990": "北京",
  "69041": "向",
  "69058": " 输入",
  "69103": "算",
  "69162": " 对",
  "69177": "江",
  "69184": "不存在",
  "69249": "里",
  "69353": " 查",
  "69372": " 如",
  "69425": " 发",
  "69442": "份",
  "69516": "责",
  "69526": "科",
  "69594": " 文件",
  "69674": " 类",
  "69721": "民",
  "69824": "数组",
  "69905": "治",
  "70074": "声",
  "70108": "男",
  "70361": "重新",
  "70500": "设计",
  "70538": "分类",
  "70568": " 输出",
  "70589": "以上",
  "70633": "异常",
  "70769": "族",
  "70790": "站",
  "70927": "没",
  "70969": " 参数",
  "70999": "県",
  "71025": "雅",
  "71109": "版本",
  "71134": "换",
  "71137": "核",
  "71138": "素",
  "71268": "都",
  "71304": "超",
  "71356": "网络",
  "71416": "店",
  "71618": "起",
  "71694": "隐藏",
  "71743": "享",
  "71773": " 方",
  "71817": "进行",
  "71951": " 是否",
  "71971": "提交",
  "72017": "发送",
  "72064": "联系",
  "72225": "拉",
  "72261": "米",
  "72448": "系统",
  "72586": "引",
  "72640": "编号",
  "72651": "点击",
  "72669": " 更",
  "72858": " 中",
  "72881": "语",
  "72990": "土",
  "73038": "宋",
  "73145": "直",
  "73157": "每",
  "73218": "公司",
  "73296": "箱",
  "73312": " 字",
  "73345": "项目",
  "73382": "後",
  "73562": " 在",
  "73670": "可以",
  "73743": "参",
  "74040": "变",
  "74046": "基",
  "74159": " 页面",
  "74167": "場",
  "74193": "待",
  "74220": "程序",
  "74386": "规",
  "74393": "数据库",
  "74413": "政",
  "74530": "雅黑",
  "74531": "软雅黑",
  "74661": "排序",
  "74763": "也",
  "74810": "介",
  "74876": "首页",
  "74999": "关闭",
  "75061": "钟",
  "75108": "五",
  "75117": "执行",
  "75223": "审",
  "75317": "单位",
  "75355": "手机号",
  "75402": " 日",
  "75405": "木",
  "75437": "打",
  "75606": "活",
  "75618": "微软雅黑",
  "75650": "播",
  "75768": "方式",
  "75882": "该",
  "76090": " 初始化",
  "76095": "条件",
  "76119": "記事",
  "76313": "展",
  "76648": "钮",
  "76813": "具",
  "76837": "路径",
  "76921": "退出",
  "77011": "宋体",
  "77128": "志",
  "77144": "言",
  "77172": "购",
  "77288": "但",
  "77419": "星",
  "77540": "两",
  "77557": "例如",
  "77559": "左",
  "77598": "考",
  "77835": "构",
  "77843": "報",
  "77959": "球",
  "78008": "设计器",
  "78103": " 更新",
  "78556": "相关",
  "78685": "音",
  "78808": "动生成",
  "78882": "端",
  "78903": "，默认",
  "78919": " 新",
  "78973": "搜索",
  "79072": "投",
  "79095": "立",
  "79256": "属性",
  "79326": "�断",
  "79478": "们",
  "79599": "火",
  "79704": " 示",
  "79766": "清",
  "80094": "金额",
  "80101": "账",
  "80158": "就",
  "80268": "费",
  "80406": "请选择",
  "80426": " 示例",
  "80443": "没有",
  "80528": " 查询",
  "80546": " 默认",
  "80565": "结束",
  "80642": "案",
  "80851": " 控",
  "80876": " 请求",
  "80942": "广",
  "81167": "确认",
  "81202": "历",
  "81217": "及",
  "81263": " 如果",
  "81320": "計",
  "81433": "止",
  "81454": " 方法",
  "81596": "么",
  "81668": "货",
  "81705": "测试",
  "81800": "数量",
  "81812": "位置",
  "81873": "時間",
  "81942": "�权",
  "81947": " 开",
  "82025": "文章",
  "82075": "阳",
  "82166": "队",
  "82201": "技",
  "82224": "场",
  "82237": "链接",
  "82339": " 添加",
  "82539": " 最",
  "82587": "数字",
  "82641": "声明",
  "82647": "少",
  "82699": "形",
  "82700": "产品",
  "82832": "稿",
  "82847": "英",
  "82894": "游",
  "82995": "亿元",
  "83031": "分钟",
  "83310": " 商",
  "83744": "供",
  "83751": "推",
  "84055": "初始化",
  "84088": "税",
  "84184": "按钮",
  "84563": "無し�",
  "84607": "初",
  "84897": " 当",
  "85027": "私",
  "85106": "需要",
  "85122": " 解",
  "85248": "全部",
  "85254": "景",
  "85329": "资源",
  "85336": "去",
  "85361": "华",
  "85641": "评论",
  "85658": " 使用",
  "85767": "配置",
  "86009": " 不",
  "86077": "話",
  "86117": "番",
  "86119": "问题",
  "86227": "报道",
  "86312": "环",
  "86341": "张",
  "86347": "開",
  "86374": "無しさん",
  "86402": "种",
  "86546": " 成",
  "86744": "易",
  "87026": "您",
  "87140": "视频",
  "87256": "再",
  "87267": "可能",
  "87335": "文字",
  "87531": "板",
  "87752": "以下",
  "87805": "电话",
  "87946": "連",
  "88051": "真",
  "88086": "有效",
  "88308": "今年",
  "88653": "流",
  "88683": "余",
  "88802": "任务",
  "88970": "见",
  "88991": "正确",
  "89012": "给",
  "89047": "服务器",
  "89161": "来源",
  "89254": " 结",
  "89656": "详情",
  "89977": "局",
  "89982": " 主",
  "90172": "优",
  "90286": "书",
  "90366": "一页",
  "90395": "，并",
  "90447": "发布",
  "90663": "思",
  "90674": "見",
  "90775": "動",
  "90840": "运",
  "90851": "审核",
  "90867": " 图",
  "90885": "样",
  "90919": "其中",
  "90956": "权限",
  "90999": "删除成功",
  "91050": "�新",
  "91093": "（笑",
  "91218": " 时间",
  "91282": "定义",
  "91417": " 关",
  "91427": " 登",
  "91453": "销",
  "91455": "万元",
  "91572": "同时",
  "91593": "無料",
  "91676": "即",
  "91680": "只",
  "91777": "老",
  "92015": "岁",
  "92032": "大小",
  "92133": "找",
  "92293": " 实",
  "92313": " 或",
  "92374": "节点",
  "92498": " 若",
  "92536": "小时",
  "92894": "其他",
  "93034": "自治",
  "93149": "分享",
  "93266": "稍",
  "93437": "�件",
  "93488": "达",
  "93568": "邮箱",
  "93620": "新增",
  "93685": " 提",
  "93823": "院",
  "93883": " 加",
  "93901": "価",
  "94121": "気",
  "94237": "约",
  "94299": "速",
  "94375": "停",
  "94443": "反",
  "94444": "票",
  "94498": "十",
  "95053": "，则",
  "95256": "身",
  "95307": " 商品",
  "95312": "含",
  "95355": "率",
  "95400": "汽",
  "95411": "专",
  "95457": "管理员",
  "95949": "歳",
  "96050": "，在",
  "96418": "関",
  "96422": "议",
  "96465": "雷",
  "96555": "正在",
  "96808": "�能",
  "97028": " 自动生成",
  "97084": "些",
  "97120": "界",
  "97145": "陆",
  "97161": " 注意",
  "97290": "备注",
  "97306": "倍",
  "97399": "読",
  "97480": "价格",
  "97557": "检",
  "97611": "我的",
  "97639": "我们",
  "97706": "还",
  "97771": "析",
  "97797": "企",
  "97815": "友",
  "97907": "”的",
  "98237": "简",
  "98279": "移到",
  "98297": "問",
  "98380": "功能",
  "98396": " 若要",
  "98402": "长度",
  "98641": "装",
  "98650": "感",
  "98671": "哈",
  "98749": "何",
  "98841": "预",
  "98966": "送料",
  "99079": "尔",
  "99107": "在线",
  "99164": "着",
  "99165": "很",
  "99172": "想",
  "99178": "质",
  "99180": "气",
  "99182": "教",
  "99185": "发展",
  "99186": "创",
  "99190": "做",
  "99191": "战",
  "99193": "强",
  "99194": "深",
  "99195": "几",
  "99199": "委",
  "99200": "各",
  "99204": "受",
  "99205": "职",
  "99208": "风",
  "99209": "营",
  "99210": "党",
  "99212": "那",
  "99213": "领",
  "99216": "术",
  "99217": "什",
  "99218": "房",
  "99219": "精",
  "99222": "太",
  "99223": "股",
  "99225": "光",
  "99226": "极",
  "99227": "办",
  "99232": "花",
  "99233": "研",
  "99234": "快",
  "99235": "师",
  "99236": "越",
  "99237": "观",
  "99241": "育",
  "99242": "爱",
  "99243": "白",
  "99244": "世",
  "99245": "什么",
  "99246": "眼",
  "99250": "被",
  "99251": "干",
  "99252": "病",
  "99253": "士",
  "99257": "工作",
  "99258": "让",
  "99259": "热",
  "99260": "较",
  "99261": "儿",
  "99262": "助",
  "99263": "积",
  "99270": "己",
  "99271": "百",
  "99272": "势",
  "99273": "赛",
  "99277": "村",
  "99278": "带",
  "99279": "境",
  "99280": "护",
  "99283": "自己",
  "99284": "济",
  "99285": "低",
  "99286": "医",
  "99287": "防",
  "99288": "农",
  "99292": "军",
  "99293": "戏",
  "99294": "升",
  "99295": "斯",
  "99296": "住",
  "99297": "落",
  "99298": "养",
  "99299": "致",
  "99304": "企业",
  "99305": "团",
  "99306": "才",
  "99307": "校",
  "99308": "准",
  "99309": "奇",
  "99310": "副",
  "99312": "演",
  "99313": "马",
  "99314": "走",
  "99315": "神",
  "99316": "克",
  "99317": "望",
  "99318": "油",
  "99319": "边",
  "99320": "千",
  "99321": "往",
  "99322": "切",
  "99326": "际",
  "99327": "牌",
  "99328": "社会",
  "99329": "游戏",
  "99330": "施",
  "99331": "照",
  "99332": "控",
  "99333": "满",
  "99334": "识",
  "99335": "重要",
  "99336": "足",
  "99337": "留",
  "99338": "细",
  "99339": "协",
  "99340": "适",
  "99345": "市场",
  "99346": "经济",
  "99347": "习",
  "99348": "文化",
  "99349": "难",
  "99350": "乐",
  "99351": "决",
  "99352": "欢",
  "99353": "觉",
  "99354": "园",
  "99355": "兴",
  "99356": "充",
  "99357": "举",
  "99358": "批",
  "99360": "把",
  "99361": "技术",
  "99362": "究",
  "99363": "第一",
  "99364": "便",
  "99365": "响",
  "99366": "玩",
  "99367": "坚",
  "99368": "融",
  "99369": "半",
  "99370": "喜",
  "99371": "层",
  "99372": "离",
  "99373": "仅",
  "99375": "味",
  "99376": "念",
  "99377": "季",
  "99378": "紧",
  "99379": "久",
  "99383": "候",
  "99384": "况",
  "99385": "石",
  "99386": "健",
  "99387": "怎",
  "99388": "宝",
  "99389": "血",
  "99390": "域",
  "99391": "早",
  "99392": "知道",
  "99393": "负",
  "99394": "博",
  "99395": "巴",
  "99396": "亲",
  "99397": "属",
  "99398": "严",
  "99399": "争",
  "99400": "察",
  "99403": "建设",
  "99404": "产业",
  "99405": "吃",
  "99406": "孩",
  "99407": "旅",
  "99408": "根",
  "99409": "材",
  "99410": "众",
  "99411": "随",
  "99412": "官",
  "99413": "底",
  "99414": "彩",
  "99415": "富",
  "99416": "温",
  "99417": "卫",
  "99418": "剧",
  "99419": "益",
  "99420": "抗",
  "99421": "财",
  "99422": "纪",
  "99424": "生活",
  "99425": "红",
  "99426": "生产",
  "99427": "远",
  "99428": "钱",
  "99429": "售",
  "99430": "群",
  "99431": "班",
  "99432": "楼",
  "99433": "采",
  "99434": "艺",
  "99435": "居",
  "99436": "假",
  "99437": "谈",
  "99438": "晚",
  "99440": "航",
  "99441": "害",
  "99445": "王",
  "99446": "康",
  "99447": "获",
  "99448": "续",
  "99449": "亚",
  "99450": "食",
  "99451": "压",
  "99452": "招",
  "99453": "范",
  "99454": "许",
  "99455": "围",
  "99457": "降",
  "99458": "纳",
  "99459": "哪",
  "99460": "教育",
  "99461": "已经",
  "99462": "德",
  "99463": "林",
  "99464": "安全",
  "99465": "龙",
  "99466": "大家",
  "99467": "青",
  "99468": "府",
  "99469": "河",
  "99470": "古",
  "99471": "药",
  "99472": "均",
  "99473": "智",
  "99474": "乡",
  "99475": "略",
  "99476": "冷",
  "99477": "福",
  "99478": "室",
  "99479": "维",
  "99480": "承",
  "99481": "届",
  "99482": "诉",
  "99483": "刻",
  "99486": "就是",
  "99487": "这个",
  "99488": "中心",
  "99489": "世界",
  "99490": "城市",
  "99491": "非常",
  "99492": "划",
  "99493": "双",
  "99494": "怎么",
  "99495": "到了",
  "99496": "會",
  "99497": "史",
  "99498": "來",
  "99499": "律",
  "99500": "奖",
  "99501": "终",
  "99502": "媒",
  "99503": "宁",
  "99504": "课",
  "99505": "职业",
  "99506": "免",
  "99507": "测",
  "99508": "急",
  "99509": "救",
  "99510": "独",
  "99511": "警",
  "99512": "餐",
  "99513": "愿",
  "99514": "贫",
  "99515": "疑",
  "99517": "她",
  "99518": "又",
  "99519": "因为",
  "99520": "不是",
  "99521": "够",
  "99522": "方面",
  "99523": "镇",
  "99524": "互",
  "99525": "酒",
  "99526": "讲",
  "99527": "疗",
  "99528": "春",
  "99529": "湖",
  "99530": "夜",
  "99531": "责任",
  "99532": "人民",
  "99533": "兰",
  "99534": "短",
  "99535": "故",
  "99536": "减",
  "99537": "普",
  "99538": "亮",
  "99539": "依",
  "99540": "印",
  "99541": "静",
  "99542": "個",
  "99543": "征",
  "99544": "吸",
  "99545": "缺",
  "99546": "攻",
  "99547": "净",
  "99548": "典",
  "99549": "固",
  "99550": "访",
  "99553": "提供",
  "99554": "织",
  "99555": "很多",
  "99556": "研究",
  "99557": "跟",
  "99558": "主要",
  "99559": "情况",
  "99560": "策",
  "99561": "死",
  "99562": "大学",
  "99563": "政府",
  "99564": "影响",
  "99565": "买",
  "99566": "六",
  "99567": "险",
  "99568": "八",
  "99569": "某",
  "99570": "质量",
  "99571": "占",
  "99572": "差",
  "99573": "更多",
  "99574": "朋",
  "99575": "革",
  "99576": "宣",
  "99577": "破",
  "99578": "轻",
  "99579": "座",
  "99580": "显",
  "99581": "稳",
  "99582": "贵",
  "99583": "背",
  "99584": "良",
  "99585": "疫",
  "99586": "毒",
  "99587": "乎",
  "99588": "借",
  "99589": "迷",
  "99590": "答",
  "99591": "激",
  "99592": "呼",
  "99593": "了一",
  "99594": "趣",
  "99595": "伴",
  "99596": "伙",
  "99599": "国家",
  "99600": "活动",
  "99601": "现在",
  "99602": "科技",
  "99603": "卡",
  "99604": "不同",
  "99605": "个人",
  "99606": "记者",
  "99607": "不断",
  "99608": "闻",
  "99609": "九",
  "99610": "著",
  "99611": "综",
  "99612": "七",
  "99613": "树",
  "99614": "朋友",
  "99615": "卖",
  "99616": "伤",
  "99617": "沙",
  "99618": "善",
  "99619": "套",
  "99620": "轮",
  "99621": "穿",
  "99622": "补",
  "99623": "一定",
  "99624": "突",
  "99625": "督",
  "99626": "追",
  "99627": "威",
  "99628": "另",
  "99629": "困",
  "99630": "架",
  "99631": "绝",
  "99632": "散",
  "99633": "探",
  "99634": "洗",
  "99635": "临",
  "99636": "似",
  "99637": "贸",
  "99638": "丰",
  "99639": "是一",
  "99640": "竞",
  "99641": "迎",
  "99642": "聚",
  "99644": "损",
  "99645": "执",
  "99646": "驾",
  "99647": "违",
  "99650": "他们",
  "99651": "时候",
  "99652": "它",
  "99653": "人员",
  "99654": "这样",
  "99655": "工程",
  "99656": "创新",
  "99657": "孩子",
  "99658": "希",
  "99659": "部分",
  "99660": "银",
  "99661": "代表",
  "99662": "香",
  "99663": "帮",
  "99664": "推进",
  "99665": "盘",
  "99666": "积极",
  "99667": "部门",
  "99668": "培",
  "99669": "武",
  "99670": "不会",
  "99671": "筑",
  "99672": "這",
  "99673": "玩家",
  "99674": "拿",
  "99675": "厂",
  "99676": "毛",
  "99677": "灵",
  "99678": "歌",
  "99679": "绿",
  "99680": "妈",
  "99681": "盛",
  "99682": "馆",
  "99683": "顺",
  "99684": "脸",
  "99685": "尼",
  "99686": "丽",
  "99687": "奥",
  "99688": "遇",
  "99689": "词",
  "99690": "封",
  "99691": "丝",
  "99692": "好的",
  "99693": "担",
  "99694": "脱",
  "99695": "恶",
  "99696": "厚",
  "99697": "劳",
  "99698": "盟",
  "99699": "折",
  "99700": "句",
  "99701": "怀",
  "99702": "染",
  "99703": "书记",
  "99704": "冠",
  "99705": "鲜",
  "99706": "概",
  "99707": "隐",
  "99708": "幅",
  "99709": "赞",
  "99710": "幕",
  "99711": "業",
  "99712": "遗",
  "99713": "判",
  "99716": "投资",
  "99717": "行业",
  "99718": "云",
  "99719": "环境",
  "99720": "学生",
  "99721": "合作",
  "99722": "健康",
  "99723": "飞",
  "99724": "一步",
  "99725": "一直",
  "99726": "发生",
  "99727": "阿",
  "99728": "领导",
  "99729": "喜欢",
  "99730": "应该",
  "99731": "為",
  "99732": "训",
  "99733": "杀",
  "99734": "港",
  "99735": "交通",
  "99736": "阶",
  "99737": "钢",
  "99738": "令",
  "99739": "尽",
  "99740": "母",
  "99741": "衣",
  "99742": "粉",
  "99743": "顶",
  "99744": "也不",
  "99745": "抓",
  "99746": "苦",
  "99747": "幸",
  "99748": "礼",
  "99749": "第三",
  "99750": "大的",
  "99751": "過",
  "99752": "烟",
  "99753": "避",
  "99754": "仍",
  "99755": "庆",
  "99756": "怕",
  "99757": "谢",
  "99758": "盖",
  "99759": "射",
  "99760": "露",
  "99761": "斗",
  "99762": "状",
  "99763": "學",
  "99764": "毕",
  "99765": "巨",
  "99766": "矿",
  "99767": "皇",
  "99768": "席",
  "99769": "症",
  "99770": "扬",
  "99771": "延",
  "99772": "侧",
  "99773": "淡",
  "99774": "的一",
  "99775": "網",
  "99776": "洁",
  "99778": "览",
  "99779": "筹",
  "99780": "秘",
  "99781": "诊",
  "99782": "現",
  "99783": "誉",
  "99784": "毫",
  "99786": "却",
  "99787": "成为",
  "99788": "能力",
  "99789": "黄",
  "99790": "旅游",
  "99791": "般",
  "99792": "比较",
  "99793": "起来",
  "99794": "了解",
  "99795": "自然",
  "99796": "一次",
  "99797": "基本",
  "99798": "曾",
  "99799": "综合",
  "99800": "菜",
  "99801": "觉得",
  "99802": "第二",
  "99803": "跑",
  "99804": "波",
  "99805": "倒",
  "99806": "础",
  "99807": "兵",
  "99808": "草",
  "99809": "申",
  "99810": "田",
  "99811": "患",
  "99812": "规定",
  "99813": "胜",
  "99814": "资产",
  "99815": "梦",
  "99816": "朝",
  "99817": "这里",
  "99818": "夫",
  "99819": "挥",
  "99820": "佛",
  "99821": "守",
  "99822": "零",
  "99823": "於",
  "99824": "篇",
  "99825": "岛",
  "99826": "哥",
  "99827": "魔",
  "99828": "不到",
  "99829": "托",
  "99830": "床",
  "99831": "欧",
  "99832": "荣",
  "99833": "汇",
  "99834": "扩",
  "99835": "偏",
  "99836": "墙",
  "99837": "讯",
  "99838": "婚",
  "99839": "惠",
  "99840": "洋",
  "99841": "宜",
  "99842": "润",
  "99843": "慢",
  "99844": "透",
  "99845": "宽",
  "99846": "顾",
  "99847": "累",
  "99848": "污",
  "99849": "爆",
  "99850": "租",
  "99851": "惊",
  "99852": "涨",
  "99853": "饰",
  "99854": "阵",
  "99855": "饮",
  "99856": "暖",
  "99857": "废",
  "99858": "旗",
  "99859": "隔",
  "99860": "經",
  "99861": "務",
  "99862": "實",
  "99863": "途",
  "99864": "扫",
  "99865": "烈",
  "99866": "電",
  "99867": "刑",
  "99868": "關",
  "99869": "闪",
  "99870": "奋",
  "99871": "储",
  "99872": "缩",
  "99873": "侵",
  "99876": "国际",
  "99877": "组织",
  "99878": "专业",
  "99879": "发现",
  "99880": "希望",
  "99881": "经营",
  "99882": "叫",
  "99883": "来说",
  "99884": "障",
  "99885": "任何",
  "99886": "交易",
  "99887": "重点",
  "99888": "皮",
  "99889": "绍",
  "99890": "派",
  "99891": "科学",
  "99892": "应用",
  "99893": "建筑",
  "99894": "肉",
  "99895": "改革",
  "99896": "基础",
  "99897": "汉",
  "99898": "出来",
  "99899": "这么",
  "99900": "刚",
  "99901": "坐",
  "99902": "不仅",
  "99903": "会议",
  "99904": "靠",
  "99905": "媒体",
  "99906": "永",
  "99907": "冲",
  "99908": "苏",
  "99909": "央",
  "99910": "父",
  "99911": "堂",
  "99912": "实际",
  "99913": "街",
  "99914": "童",
  "99915": "阅",
  "99916": "事情",
  "99917": "原因",
  "99918": "酸",
  "99919": "以来",
  "99920": "娱",
  "99921": "宫",
  "99922": "块",
  "99923": "绩",
  "99924": "野",
  "99925": "不得",
  "99926": "传奇",
  "99927": "硬",
  "99928": "厅",
  "99929": "既",
  "99930": "练",
  "99931": "脑",
  "99932": "弱",
  "99933": "掌",
  "99934": "贴",
  "99935": "挂",
  "99936": "关键",
  "99937": "尚",
  "99938": "饭",
  "99939": "庄",
  "99940": "發",
  "99941": "國",
  "99942": "授",
  "99943": "个月",
  "99944": "予",
  "99945": "币",
  "99946": "距",
  "99947": "沉",
  "99948": "竟",
  "99949": "冬",
  "99950": "抽",
  "99951": "醒",
  "99952": "弟",
  "99953": "触",
  "99954": "聘",
  "99955": "豆",
  "99956": "暴",
  "99957": "告诉",
  "99958": "豪",
  "99959": "赢",
  "99960": "跨",
  "99961": "資",
  "99962": "爸",
  "99963": "抱",
  "99964": "浪",
  "99965": "麻",
  "99966": "仪",
  "99967": "衡",
  "99968": "奶",
  "99969": "灾",
  "99970": "赶",
  "99971": "肥",
  "99972": "姐",
  "99973": "债",
  "99974": "震",
  "99975": "订",
  "99976": "權",
  "99978": "廉",
  "99979": "俗",
  "99980": "忘",
  "99981": "妇",
  "99982": "缓",
  "99983": "孕",
  "99984": "漫",
  "99985": "裁",
  "99986": "燃",
  "99987": "默",
  "99988": "牢",
  "99989": "爷",
  "99990": "抵",
  "99991": "宾",
  "99992": "有一",
  "99993": "迹",
  "99994": "迫",
  "99995": "貌",
  "99996": "有的",
  "99998": "还是",
  "99999": "所以",
  "100000": "也是",
  "100001": "这些",
  "100002": "对于",
  "100003": "吧",
  "100004": "目前",
  "100005": "自己的",
  "100006": "能够",
  "100007": "如何",
  "100008": "机构",
  "100009": "只是",
  "100010": "网站",
  "100011": "全面",
  "100012": "为了",
  "100013": "开发",
  "100014": "新闻",
  "100015": "金融",
  "100016": "继",
  "100017": "客户",
  "100018": "一起",
  "100019": "茶",
  "100020": "关注",
  "100021": "水平",
  "100022": "历史",
  "100023": "增长",
  "100025": "基金",
  "100026": "庭",
  "100027": "叶",
  "100028": "促",
  "100029": "雨",
  "100030": "消费",
  "100031": "船",
  "100032": "知识",
  "100033": "战略",
  "100034": "经验",
  "100035": "峰",
  "100036": "曲",
  "100037": "脚",
  "100038": "冰",
  "100039": "夏",
  "100040": "归",
  "100041": "笔",
  "100042": "虑",
  "100043": "甲",
  "100044": "圈",
  "100045": "诗",
  "100046": "齐",
  "100047": "容易",
  "100048": "研发",
  "100049": "骨",
  "100050": "纸",
  "100051": "践",
  "100052": "旧",
  "100053": "當",
  "100054": "券",
  "100055": "贷",
  "100056": "召",
  "100057": "秋",
  "100058": "液",
  "100059": "行政",
  "100060": "献",
  "100061": "肤",
  "100062": "逐",
  "100063": "越来",
  "100064": "越来越",
  "100065": "意见",
  "100066": "舞",
  "100067": "剂",
  "100068": "涉",
  "100069": "程度",
  "100070": "公共",
  "100071": "械",
  "100072": "末",
  "100073": "纯",
  "100074": "唱",
  "100075": "洲",
  "100076": "抢",
  "100077": "植",
  "100078": "忙",
  "100079": "估",
  "100080": "弹",
  "100081": "泉",
  "100082": "最大",
  "100083": "趋",
  "100084": "巧",
  "100085": "禁",
  "100086": "扶",
  "100087": "危",
  "100088": "珠",
  "100089": "熟",
  "100090": "拜",
  "100091": "主义",
  "100092": "杂",
  "100093": "附",
  "100094": "遍",
  "100095": "搭",
  "100096": "振",
  "100097": "多年",
  "100098": "敬",
  "100099": "摄",
  "100100": "纷",
  "100101": "弃",
  "100102": "湿",
  "100103": "娘",
  "100104": "档",
  "100105": "驶",
  "100106": "朗",
  "100107": "殖",
  "100108": "榜",
  "100109": "員",
  "100110": "一体",
  "100111": "查看",
  "100112": "繁",
  "100113": "浓",
  "100114": "公安",
  "100115": "潜",
  "100116": "贯",
  "100117": "骗",
  "100118": "搜",
  "100119": "巡",
  "100122": "委会",
  "100123": "悠",
  "100124": "剩",
  "100125": "揭",
  "100126": "季度",
  "100131": "但是",
  "100132": "都是",
  "100133": "平台",
  "100134": "学习",
  "100135": "品牌",
  "100136": "且",
  "100137": "这种",
  "100138": "政策",
  "100139": "括",
  "100140": "认为",
  "100141": "一般",
  "100142": "标准",
  "100143": "支持",
  "100144": "模式",
  "100145": "关系",
  "100146": "的是",
  "100147": "这一",
  "100148": "不要",
  "100149": "甚",
  "100150": "精神",
  "100151": "拥",
  "100152": "利用",
  "100153": "保护",
  "100154": "作用",
  "100155": "若",
  "100156": "国内",
  "100157": "介绍",
  "100158": "一下",
  "100159": "工业",
  "100160": "目标",
  "100161": "最后",
  "100162": "价值",
  "100163": "對",
  "100164": "铁",
  "100165": "谁",
  "100166": "结构",
  "100167": "雪",
  "100168": "智能",
  "100169": "传统",
  "100170": "体育",
  "100171": "生态",
  "100172": "拍",
  "100173": "措",
  "100174": "农业",
  "100175": "特色",
  "100176": "规模",
  "100177": "时代",
  "100178": "过程",
  "100179": "针",
  "100180": "松",
  "100181": "唐",
  "100182": "医疗",
  "100183": "灯",
  "100184": "制造",
  "100185": "核心",
  "100186": "不可",
  "100187": "系列",
  "100188": "吉",
  "100189": "圣",
  "100190": "們",
  "100191": "佳",
  "100192": "来看",
  "100193": "比赛",
  "100194": "下来",
  "100195": "出了",
  "100196": "干部",
  "100197": "微信",
  "100198": "当地",
  "100199": "卷",
  "100200": "卫生",
  "100201": "伟",
  "100202": "疫情",
  "100203": "谷",
  "100204": "几个",
  "100205": "阴",
  "100206": "生物",
  "100207": "尤",
  "100208": "伊",
  "100209": "肯",
  "100210": "面积",
  "100211": "创造",
  "100212": "握",
  "100213": "圆",
  "100214": "晓",
  "100215": "成了",
  "100216": "凡",
  "100217": "疾",
  "100218": "竞争",
  "100219": "讨",
  "100220": "主题",
  "100221": "鲁",
  "100222": "迪",
  "100223": "俄",
  "100224": "怪",
  "100225": "並",
  "100226": "虚",
  "100227": "潮",
  "100228": "烧",
  "100229": "耳",
  "100230": "池",
  "100231": "适合",
  "100232": "根本",
  "100233": "加盟",
  "100234": "电视",
  "100235": "混",
  "100236": "缘",
  "100237": "窗",
  "100238": "犯",
  "100239": "惯",
  "100240": "意义",
  "100241": "办法",
  "100242": "休",
  "100243": "滑",
  "100244": "勇",
  "100245": "敢",
  "100246": "寻",
  "100247": "覆",
  "100248": "逃",
  "100249": "经理",
  "100250": "坏",
  "100251": "泽",
  "100252": "乘",
  "100253": "刺",
  "100254": "屏",
  "100255": "顿",
  "100256": "亡",
  "100257": "邀",
  "100258": "兼",
  "100259": "勤",
  "100260": "残",
  "100261": "映",
  "100262": "毕业",
  "100263": "截",
  "100264": "跌",
  "100265": "壁",
  "100266": "另一",
  "100267": "真实",
  "100268": "磨",
  "100269": "诚",
  "100270": "必要",
  "100271": "恋",
  "100272": "懂",
  "100273": "徒",
  "100274": "谓",
  "100275": "敏",
  "100276": "晨",
  "100277": "胸",
  "100278": "拼",
  "100279": "妙",
  "100280": "诸",
  "100281": "聊",
  "100282": "悉",
  "100283": "麼",
  "100284": "凭",
  "100285": "舒",
  "100286": "涂",
  "100287": "迁",
  "100288": "沿",
  "100289": "塑",
  "100290": "替",
  "100291": "澳",
  "100292": "忍",
  "100293": "耗",
  "100294": "霸",
  "100295": "几年",
  "100296": "刊",
  "100297": "脉",
  "100298": "腐",
  "100299": "桌",
  "100300": "纠",
  "100301": "滚",
  "100302": "悲",
  "100303": "冒",
  "100304": "妹",
  "100305": "畅",
  "100306": "纵",
  "100307": "摇",
  "100308": "夺",
  "100309": "路上",
  "100310": "忽",
  "100311": "薪",
  "100312": "恐",
  "100313": "意思",
  "100314": "嫌",
  "100315": "援",
  "100316": "氧",
  "100317": "耀",
  "100318": "阻",
  "100319": "轨",
  "100320": "幻",
  "100321": "捕",
  "100322": "坦",
  "100323": "哈哈",
  "100324": "狐",
  "100325": "滨",
  "100326": "費",
  "100327": "迟",
  "100328": "人都",
  "100329": "绘",
  "100330": "叹",
  "100331": "結",
  "100332": "扰",
  "100333": "滋",
  "100334": "契",
  "100335": "募",
  "100336": "確",
  "100338": "集团",
  "100339": "李",
  "100340": "开展",
  "100341": "提升",
  "100342": "全国",
  "100343": "汽车",
  "100344": "学校",
  "100345": "根据",
  "100346": "这是",
  "100347": "出现",
  "100348": "陈",
  "100349": "罗",
  "100350": "获得",
  "100351": "刘",
  "100352": "销售",
  "100353": "未来",
  "100354": "需求",
  "100355": "实施",
  "100356": "坚持",
  "100357": "全球",
  "100358": "银行",
  "100359": "控制",
  "100360": "须",
  "100361": "地区",
  "100362": "打造",
  "100363": "的话",
  "100364": "帮助",
  "100365": "体系",
  "100366": "达到",
  "100367": "规划",
  "100368": "培训",
  "100369": "两个",
  "100370": "报告",
  "100371": "地方",
  "100372": "完全",
  "100373": "掉",
  "100374": "结合",
  "100375": "宣传",
  "100376": "法律",
  "100377": "艺术",
  "100378": "电影",
  "100379": "說",
  "100380": "一点",
  "100381": "超过",
  "100382": "电子",
  "100383": "思想",
  "100384": "教学",
  "100385": "阶段",
  "100386": "商业",
  "100387": "物流",
  "100388": "创业",
  "100389": "方案",
  "100390": "现代",
  "100391": "桥",
  "100392": "落实",
  "100393": "带来",
  "100394": "产生",
  "100395": "秀",
  "100396": "泰",
  "100397": "乱",
  "100398": "具体",
  "100399": "喝",
  "100400": "蓝",
  "100401": "宗",
  "100402": "升级",
  "100403": "深入",
  "100404": "保险",
  "100405": "简单",
  "100406": "痛",
  "100407": "稳定",
  "100408": "辆",
  "100409": "属于",
  "100410": "川",
  "100411": "不少",
  "100412": "咨",
  "100413": "东西",
  "100414": "形式",
  "100415": "娱乐",
  "100416": "正常",
  "100417": "鸡",
  "100418": "充分",
  "100419": "实践",
  "100420": "里面",
  "100421": "跳",
  "100422": "虎",
  "100423": "成长",
  "100424": "暗",
  "100425": "睡",
  "100426": "罪",
  "100427": "理念",
  "100428": "挑",
  "100429": "资本",
  "100430": "多少",
  "100431": "下面",
  "100432": "帝",
  "100433": "公开",
  "100434": "渐",
  "100435": "長",
  "100436": "屋",
  "100437": "欢迎",
  "100438": "心理",
  "100439": "炎",
  "100440": "湾",
  "100441": "讓",
  "100442": "還",
  "100443": "糖",
  "100444": "乌",
  "100445": "励",
  "100446": "牙",
  "100447": "腿",
  "100448": "岗",
  "100449": "伍",
  "100450": "成员",
  "100451": "孔",
  "100452": "小编",
  "100453": "董",
  "100454": "泡",
  "100455": "先进",
  "100456": "內",
  "100457": "嘴",
  "100458": "贝",
  "100460": "搞",
  "100461": "泛",
  "100462": "鸟",
  "100463": "署",
  "100464": "蛋",
  "100465": "主任",
  "100466": "目的",
  "100467": "乏",
  "100468": "津",
  "100469": "戴",
  "100470": "严格",
  "100471": "煤",
  "100472": "猫",
  "100473": "唯",
  "100474": "尊",
  "100475": "甜",
  "100476": "垃",
  "100477": "圾",
  "100478": "拟",
  "100479": "焦",
  "100480": "體",
  "100481": "宏",
  "100482": "機",
  "100483": "驻",
  "100484": "旁",
  "100485": "彻",
  "100486": "都不",
  "100487": "摩",
  "100488": "仓",
  "100489": "乳",
  "100490": "岸",
  "100491": "谋",
  "100492": "大多",
  "100493": "灭",
  "100494": "腾",
  "100495": "柜",
  "100496": "舍",
  "100497": "党的",
  "100498": "尘",
  "100499": "十年",
  "100500": "拒",
  "100501": "裡",
  "100502": "柔",
  "100503": "幼",
  "100504": "锁",
  "100505": "专项",
  "100506": "扎",
  "100507": "驾驶",
  "100508": "碎",
  "100509": "袋",
  "100510": "锋",
  "100511": "壮",
  "100512": "尖",
  "100513": "电池",
  "100514": "返",
  "100515": "漏",
  "100516": "循",
  "100517": "菌",
  "100518": "胃",
  "100519": "辅",
  "100520": "递",
  "100521": "胎",
  "100522": "陪",
  "100523": "寿",
  "100524": "奔",
  "100525": "猛",
  "100526": "纹",
  "100527": "知名",
  "100528": "忆",
  "100529": "桃",
  "100530": "棋",
  "100531": "逆",
  "100532": "炼",
  "100533": "籍",
  "100534": "牧",
  "100535": "样的",
  "100536": "辛",
  "100537": "堆",
  "100538": "实在",
  "100539": "伏",
  "100540": "宿",
  "100541": "赏",
  "100542": "裂",
  "100543": "半年",
  "100544": "倾",
  "100545": "满意",
  "100546": "梯",
  "100547": "意味",
  "100548": "孤",
  "100549": "祝",
  "100550": "晶",
  "100551": "赔",
  "100552": "偿",
  "100553": "脂",
  "100554": "罚",
  "100555": "碍",
  "100556": "沃",
  "100557": "操",
  "100558": "崇",
  "100559": "暂",
  "100560": "跃",
  "100561": "搬",
  "100562": "婆",
  "100564": "鉴",
  "100565": "兴趣",
  "100566": "营业",
  "100567": "變",
  "100568": "脏",
  "100569": "辈",
  "100570": "州市",
  "100571": "贫困",
  "100572": "穷",
  "100573": "中小",
  "100574": "漂",
  "100575": "癌",
  "100576": "蜜",
  "100577": "伙伴",
  "100578": "牵",
  "100579": "悟",
  "100580": "陷",
  "100581": "赛季",
  "100582": "樣",
  "100583": "偶",
  "100584": "昆",
  "100585": "袭",
  "100586": "捐",
  "100587": "艰",
  "100588": "悬",
  "100589": "產",
  "100590": "葡",
  "100591": "盗",
  "100592": "婴",
  "100593": "導",
  "100594": "纽",
  "100595": "倡",
  "100596": "扮",
  "100597": "設",
  "100598": "抑",
  "100599": "硕",
  "100600": "辖",
  "100601": "郁",
  "100602": "辩",
  "100603": "邻",
  "100604": "现出",
  "100605": "規",
  "100606": "役",
  "100607": "阔",
  "100608": "創",
  "100609": "诱",
  "100610": "惑",
  "100611": "淀",
  "100612": "颈",
  "100613": "侦",
  "100614": "恰",
  "100615": "检察",
  "100616": "醫",
  "100617": "然是",
  "100618": "勃",
  "100619": "茫",
  "100622": "作为",
  "100623": "的人",
  "100624": "那么",
  "100625": "美国",
  "100626": "还有",
  "100627": "提高",
  "100628": "虽",
  "100629": "具有",
  "100630": "包括",
  "100631": "或者",
  "100632": "不过",
  "100633": "上海",
  "100634": "医院",
  "100635": "资金",
  "100636": "甚至",
  "100637": "制度",
  "100638": "解决",
  "100639": "联网",
  "100640": "继续",
  "100641": "建立",
  "100642": "进一步",
  "100643": "材料",
  "100644": "今天",
  "100645": "必须",
  "100646": "各种",
  "100647": "现场",
  "100648": "他的",
  "100649": "增加",
  "100650": "领域",
  "100651": "参与",
  "100652": "持续",
  "100653": "之一",
  "100654": "特别",
  "100655": "鱼",
  "100656": "共同",
  "100657": "努",
  "100658": "玉",
  "100659": "人们",
  "100660": "先生",
  "100661": "优势",
  "100662": "保持",
  "100663": "作品",
  "100664": "牛",
  "100665": "成本",
  "100666": "收入",
  "100667": "及时",
  "100668": "负责",
  "100669": "接受",
  "100670": "荐",
  "100671": "只要",
  "100672": "真的",
  "100673": "导致",
  "100674": "机制",
  "100675": "行动",
  "100676": "新的",
  "100677": "完善",
  "100678": "为什么",
  "100679": "中央",
  "100680": "成立",
  "100681": "感觉",
  "100682": "变化",
  "100683": "受到",
  "100684": "并不",
  "100685": "孙",
  "100686": "施工",
  "100687": "明显",
  "100688": "过去",
  "100689": "发挥",
  "100690": "真正",
  "100691": "基地",
  "100692": "明确",
  "100693": "胡",
  "100694": "许多",
  "100695": "一年",
  "100696": "方向",
  "100697": "恩",
  "100698": "相信",
  "100699": "圳",
  "100700": "详细",
  "100701": "事业",
  "100702": "生命",
  "100703": "咨询",
  "100704": "文明",
  "100705": "瑞",
  "100706": "绿色",
  "100707": "莫",
  "100708": "意识",
  "100709": "投入",
  "100710": "加快",
  "100711": "梅",
  "100712": "翻",
  "100713": "开放",
  "100714": "普通",
  "100715": "协会",
  "100716": "成绩",
  "100717": "仙",
  "100718": "寒",
  "100719": "证券",
  "100720": "认识",
  "100721": "丹",
  "100722": "大量",
  "100723": "迅",
  "100724": "做到",
  "100725": "设施",
  "100726": "贸易",
  "100727": "能源",
  "100728": "时期",
  "100729": "一天",
  "100730": "治理",
  "100731": "嘉",
  "100732": "宇",
  "100733": "丰富",
  "100734": "举行",
  "100735": "成果",
  "100736": "肯定",
  "100737": "狗",
  "100738": "动力",
  "100739": "森",
  "100740": "几乎",
  "100741": "因素",
  "100742": "民族",
  "100743": "洞",
  "100744": "网友",
  "100745": "合理",
  "100746": "广大",
  "100747": "殊",
  "100748": "洛",
  "100749": "杯",
  "100750": "蒙",
  "100751": "用于",
  "100752": "融资",
  "100753": "祖",
  "100754": "机械",
  "100755": "举办",
  "100756": "自动",
  "100757": "办公",
  "100758": "點",
  "100759": "雄",
  "100760": "值得",
  "100761": "猪",
  "100762": "以为",
  "100763": "昌",
  "100764": "距离",
  "100765": "吸引",
  "100766": "绕",
  "100767": "隆",
  "100768": "计算",
  "100769": "队伍",
  "100770": "大会",
  "100771": "引起",
  "100772": "特点",
  "100773": "胶",
  "100774": "年轻",
  "100775": "本身",
  "100776": "机关",
  "100777": "官方",
  "100778": "郑",
  "100779": "浙",
  "100780": "角色",
  "100781": "董事",
  "100782": "为主",
  "100783": "无论",
  "100784": "习惯",
  "100785": "楚",
  "100786": "拓",
  "100787": "统计",
  "100788": "兄",
  "100789": "广泛",
  "100790": "區",
  "100791": "污染",
  "100792": "請",
  "100793": "节目",
  "100794": "伦",
  "100795": "覆盖",
  "100796": "耐",
  "100797": "扶贫",
  "100798": "经历",
  "100799": "重要的",
  "100800": "股东",
  "100801": "招聘",
  "100802": "四个",
  "100803": "應",
  "100804": "胞",
  "100805": "摆",
  "100806": "高速",
  "100807": "麦",
  "100808": "原则",
  "100809": "莱",
  "100810": "更好",
  "100811": "镜",
  "100812": "凌",
  "100813": "垃圾",
  "100814": "進",
  "100815": "灰",
  "100816": "铺",
  "100817": "事故",
  "100818": "甘",
  "100819": "空气",
  "100820": "龄",
  "100821": "菲",
  "100822": "瓶",
  "100823": "昨",
  "100824": "日报",
  "100825": "浮",
  "100826": "地图",
  "100827": "呈",
  "100828": "大力",
  "100829": "绪",
  "100830": "帅",
  "100831": "服務",
  "100832": "不错",
  "100833": "乡村",
  "100834": "履",
  "100835": "平方",
  "100836": "闲",
  "100837": "扣",
  "100838": "素质",
  "100839": "赴",
  "100840": "遭",
  "100841": "萨",
  "100842": "自主",
  "100843": "金属",
  "100844": "良好",
  "100845": "两年",
  "100846": "泥",
  "100847": "颜",
  "100848": "精彩",
  "100849": "中华",
  "100850": "晋",
  "100851": "习近",
  "100852": "习近平",
  "100853": "战士",
  "100854": "做的",
  "100855": "骑",
  "100856": "滴",
  "100857": "瓜",
  "100858": "版权",
  "100859": "肠",
  "100860": "會員",
  "100861": "珍",
  "100862": "種",
  "100863": "仿",
  "100864": "物业",
  "100865": "個人",
  "100866": "妻",
  "100867": "伸",
  "100868": "汗",
  "100869": "旺",
  "100870": "理想",
  "100871": "摸",
  "100872": "违法",
  "100873": "完整",
  "100874": "厦",
  "100875": "踏",
  "100876": "斑",
  "100877": "桂",
  "100878": "体制",
  "100879": "師",
  "100880": "杆",
  "100881": "殿",
  "100882": "毁",
  "100883": "馈",
  "100884": "角度",
  "100885": "欣",
  "100886": "烦",
  "100887": "肺",
  "100888": "采访",
  "100889": "摘",
  "100890": "挡",
  "100891": "淘",
  "100892": "养老",
  "100893": "炸",
  "100894": "迈",
  "100895": "厉",
  "100896": "坊",
  "100897": "辣",
  "100898": "凝",
  "100899": "泪",
  "100900": "疏",
  "100901": "掘",
  "100902": "像是",
  "100903": "雕",
  "100904": "缝",
  "100905": "荷",
  "100906": "捷",
  "100907": "堡",
  "100908": "句话",
  "100909": "疼",
  "100910": "栏",
  "100911": "遵",
  "100912": "碳",
  "100913": "工商",
  "100914": "携",
  "100915": "別",
  "100916": "乙",
  "100917": "旋",
  "100918": "惜",
  "100919": "一大",
  "100920": "层次",
  "100921": "赖",
  "100922": "抬",
  "100923": "樂",
  "100924": "诞",
  "100925": "兒",
  "100926": "篮",
  "100927": "肃",
  "100928": "姿",
  "100929": "抚",
  "100930": "瓷",
  "100931": "电动",
  "100932": "新冠",
  "100933": "涵",
  "100934": "碑",
  "100935": "淮",
  "100936": "旨",
  "100937": "踪",
  "100938": "渔",
  "100939": "愈",
  "100940": "叔",
  "100941": "南省",
  "100942": "義",
  "100943": "委书记",
  "100944": "貸",
  "100945": "涌",
  "100946": "論",
  "100947": "萄",
  "100948": "描",
  "100949": "忧",
  "100950": "辦",
  "100951": "妆",
  "100952": "扭",
  "100953": "呵",
  "100954": "遥",
  "100955": "許",
  "100956": "仇",
  "100957": "十三",
  "100958": "割",
  "100959": "認",
  "100960": "舰",
  "100961": "颇",
  "100962": "饱",
  "100963": "狠",
  "100964": "高的",
  "100965": "統",
  "100966": "慎",
  "100967": "颁",
  "100968": "合适",
  "100969": "浴",
  "100970": "赋",
  "100971": "押",
  "100972": "妥",
  "100973": "院长",
  "100974": "耕",
  "100975": "辨",
  "100976": "慰",
  "100977": "十四",
  "100978": "朵",
  "100979": "蓄",
  "100980": "枢",
  "100981": "廷",
  "100982": "悄",
  "100983": "涯",
  "100984": "矩",
  "100985": "子里",
  "100986": "犹",
  "100987": "局长",
  "100989": "奠",
  "100990": "会长",
  "100991": "據",
  "100992": "不及",
  "100993": "十九",
  "100994": "欺",
  "100995": "躺",
  "100996": "阐",
  "100997": "續",
  "100998": "註",
  "100999": "冊",
  "101000": "識",
  "101001": "高等",
  "101002": "腺",
  "101003": "夕",
  "101004": "绑",
  "101005": "唤",
  "101006": "蕴",
  "101007": "畜",
  "101008": "態",
  "101009": "叙",
  "101010": "參",
  "101011": "峡",
  "101012": "人大",
  "101013": "酿",
  "101014": "適",
  "101015": "奢",
  "101016": "口气",
  "101017": "錄",
  "101019": "勘",
  "101020": "贿",
  "101021": "險",
  "101023": "隶",
  "101034": "以及",
  "101035": "有限",
  "101036": "呢",
  "101037": "吗",
  "101038": "看到",
  "101039": "计划",
  "101040": "进入",
  "101041": "直接",
  "101042": "分析",
  "101043": "只有",
  "101044": "设备",
  "101045": "其实",
  "101046": "加强",
  "101047": "中的",
  "101048": "保障",
  "101049": "老师",
  "101050": "人才",
  "101051": "得到",
  "101052": "风险",
  "101053": "一种",
  "101054": "空间",
  "101055": "我国",
  "101056": "之前",
  "101057": "专家",
  "101058": "杨",
  "101059": "日本",
  "101060": "群众",
  "101061": "参加",
  "101062": "效果",
  "101063": "有关",
  "101064": "家庭",
  "101065": "区域",
  "101066": "努力",
  "101067": "随着",
  "101068": "无法",
  "101069": "交流",
  "101070": "行为",
  "101071": "检查",
  "101072": "期间",
  "101073": "如此",
  "101074": "股份",
  "101075": "当时",
  "101076": "装备",
  "101077": "准备",
  "101078": "酒店",
  "101079": "运动",
  "101080": "提出",
  "101081": "左右",
  "101082": "措施",
  "101083": "食品",
  "101084": "消费者",
  "101085": "学院",
  "101086": "指导",
  "101087": "运营",
  "101088": "重大",
  "101089": "农村",
  "101090": "造成",
  "101091": "政治",
  "101092": "针对",
  "101093": "正式",
  "101094": "取得",
  "101095": "那个",
  "101096": "集中",
  "101097": "只能",
  "101098": "快速",
  "101099": "身体",
  "101100": "党员",
  "101101": "联合",
  "101102": "力量",
  "101103": "都有",
  "101104": "慧",
  "101105": "塔",
  "101106": "别人",
  "101107": "表现",
  "101108": "故事",
  "101109": "一切",
  "101110": "將",
  "101111": "资料",
  "101112": "培养",
  "101113": "阅读",
  "101114": "有人",
  "101115": "营销",
  "101116": "监督",
  "101117": "环保",
  "101118": "考虑",
  "101119": "深圳",
  "101120": "严重",
  "101121": "范围",
  "101122": "委员",
  "101123": "监管",
  "101124": "三个",
  "101125": "装修",
  "101126": "公里",
  "101127": "分别",
  "101128": "理解",
  "101129": "韩",
  "101130": "加工",
  "101131": "认真",
  "101132": "不好",
  "101133": "去年",
  "101134": "降低",
  "101135": "机会",
  "101136": "协议",
  "101137": "符合",
  "101138": "增强",
  "101139": "技能",
  "101140": "首先",
  "101141": "秦",
  "101142": "丁",
  "101143": "尾",
  "101144": "有了",
  "101145": "地产",
  "101146": "渠",
  "101147": "方便",
  "101148": "移动",
  "101149": "速度",
  "101150": "尤其",
  "101151": "通知",
  "101152": "坛",
  "101153": "避免",
  "101154": "恢",
  "101155": "贡",
  "101156": "职工",
  "101157": "实力",
  "101158": "是一种",
  "101159": "启动",
  "101160": "疾病",
  "101161": "来了",
  "101162": "相对",
  "101163": "现实",
  "101164": "融合",
  "101165": "同样",
  "101166": "公告",
  "101167": "特殊",
  "101168": "紫",
  "101169": "下去",
  "101170": "传播",
  "101171": "最好",
  "101172": "优质",
  "101173": "沒",
  "101174": "挺",
  "101175": "旦",
  "101176": "诺",
  "101177": "一名",
  "101178": "道路",
  "101179": "示范",
  "101180": "过来",
  "101181": "同学",
  "101182": "鼓",
  "101183": "杭",
  "101184": "本次",
  "101185": "同意",
  "101186": "世纪",
  "101187": "羊",
  "101188": "欲",
  "101189": "工艺",
  "101190": "瓦",
  "101191": "人士",
  "101192": "有所",
  "101193": "从事",
  "101194": "有很多",
  "101195": "不了",
  "101196": "岗位",
  "101197": "变得",
  "101198": "劳动",
  "101199": "处于",
  "101200": "平均",
  "101201": "形象",
  "101202": "塞",
  "101203": "共享",
  "101204": "睛",
  "101205": "利润",
  "101206": "正是",
  "101207": "往往",
  "101208": "相比",
  "101209": "横",
  "101210": "刷",
  "101211": "浙江",
  "101212": "大部分",
  "101213": "多个",
  "101214": "您的",
  "101215": "电商",
  "101216": "微博",
  "101217": "始终",
  "101218": "犯罪",
  "101219": "是在",
  "101220": "组合",
  "101221": "原来",
  "101222": "清楚",
  "101223": "各地",
  "101224": "感受",
  "101225": "当中",
  "101226": "趋势",
  "101227": "景区",
  "101228": "真是",
  "101229": "供应",
  "101230": "转型",
  "101231": "狂",
  "101232": "膜",
  "101233": "苗",
  "101234": "忠",
  "101235": "很大",
  "101236": "股权",
  "101237": "美元",
  "101238": "排名",
  "101239": "动物",
  "101240": "锅",
  "101241": "墨",
  "101242": "主席",
  "101243": "很好",
  "101244": "绝对",
  "101245": "杜",
  "101246": "转载",
  "101247": "璃",
  "101248": "村民",
  "101249": "吨",
  "101250": "园区",
  "101251": "高度",
  "101252": "物质",
  "101253": "辉",
  "101254": "日常",
  "101255": "插",
  "101256": "三年",
  "101257": "体现",
  "101258": "才是",
  "101259": "代理",
  "101260": "不管",
  "101261": "恒",
  "101262": "地位",
  "101263": "粮",
  "101264": "薄",
  "101265": "明白",
  "101266": "一致",
  "101267": "曼",
  "101268": "哭",
  "101269": "凤",
  "101270": "劲",
  "101271": "敌",
  "101272": "战斗",
  "101273": "主体",
  "101274": "公布",
  "101275": "参考",
  "101276": "航空",
  "101277": "寺",
  "101278": "学会",
  "101279": "反映",
  "101280": "美丽",
  "101281": "太阳",
  "101282": "建成",
  "101283": "慢慢",
  "101284": "各个",
  "101285": "邦",
  "101286": "组成",
  "101287": "三大",
  "101288": "锦",
  "101289": "大多数",
  "101290": "概念",
  "101291": "魂",
  "101292": "公益",
  "101293": "荒",
  "101294": "身份",
  "101295": "深刻",
  "101296": "兩",
  "101297": "经典",
  "101298": "各项",
  "101299": "處",
  "101300": "进步",
  "101301": "十二",
  "101302": "执法",
  "101303": "想到",
  "101304": "感染",
  "101305": "商务",
  "101306": "小组",
  "101307": "蔬",
  "101308": "班子",
  "101309": "同志",
  "101310": "面临",
  "101311": "炒",
  "101312": "多种",
  "101313": "观点",
  "101314": "哪里",
  "101315": "尝",
  "101316": "姆",
  "101317": "腹",
  "101318": "城区",
  "101319": "太多",
  "101320": "病毒",
  "101321": "在于",
  "101322": "所谓",
  "101323": "晰",
  "101324": "枝",
  "101325": "拖",
  "101326": "宅",
  "101327": "整治",
  "101328": "住房",
  "101329": "偷",
  "101330": "熊",
  "101331": "赁",
  "101332": "氛",
  "101333": "格局",
  "101334": "基础上",
  "101335": "胆",
  "101336": "兽",
  "101337": "零售",
  "101338": "坡",
  "101339": "女孩",
  "101340": "撞",
  "101341": "全力",
  "101342": "咖",
  "101343": "肩",
  "101344": "眉",
  "101345": "至于",
  "101346": "党组",
  "101347": "一件",
  "101348": "拆",
  "101349": "事实",
  "101350": "傳",
  "101351": "湘",
  "101352": "網站",
  "101353": "循环",
  "101354": "同比",
  "101355": "拔",
  "101356": "医药",
  "101357": "养殖",
  "101358": "固定",
  "101359": "实际上",
  "101360": "记得",
  "101361": "利于",
  "101362": "悦",
  "101363": "拳",
  "101364": "肝",
  "101365": "效益",
  "101366": "該",
  "101367": "民主",
  "101368": "症状",
  "101369": "風",
  "101370": "幼儿",
  "101371": "姑",
  "101372": "戒",
  "101373": "下的",
  "101374": "渡",
  "101375": "年底",
  "101376": "记忆",
  "101377": "吐",
  "101378": "大幅",
  "101379": "徽",
  "101380": "公众",
  "101381": "信心",
  "101382": "玛",
  "101383": "会上",
  "101384": "乔",
  "101385": "摄影",
  "101386": "棋牌",
  "101387": "陕",
  "101388": "应急",
  "101389": "收费",
  "101390": "控股",
  "101391": "仪式",
  "101392": "瞬",
  "101393": "所在",
  "101394": "碰",
  "101395": "姓",
  "101396": "題",
  "101397": "支部",
  "101398": "使命",
  "101399": "炉",
  "101400": "寄",
  "101401": "翼",
  "101402": "地下",
  "101403": "辞",
  "101404": "俱",
  "101405": "主持",
  "101406": "货币",
  "101407": "恨",
  "101408": "肌",
  "101409": "盈",
  "101410": "锻",
  "101411": "志愿",
  "101412": "类似",
  "101413": "挖",
  "101414": "逻",
  "101415": "總",
  "101416": "纪念",
  "101417": "啥",
  "101418": "弯",
  "101419": "名字",
  "101420": "健身",
  "101421": "的心",
  "101422": "驱",
  "101423": "背后",
  "101424": "法师",
  "101425": "粒",
  "101426": "能量",
  "101427": "辰",
  "101428": "艳",
  "101429": "彼",
  "101430": "段时间",
  "101431": "合法",
  "101432": "擦",
  "101433": "羽",
  "101434": "厨",
  "101435": "我说",
  "101436": "事务",
  "101437": "几天",
  "101438": "允",
  "101439": "缴",
  "101440": "卓",
  "101441": "两种",
  "101442": "独特",
  "101443": "帶",
  "101444": "钻",
  "101445": "惩",
  "101446": "领先",
  "101447": "足够",
  "101448": "壳",
  "101449": "意味着",
  "101450": "分布",
  "101451": "乃",
  "101452": "運",
  "101453": "佩",
  "101454": "谱",
  "101455": "灣",
  "101456": "荡",
  "101457": "贯彻",
  "101458": "幾",
  "101459": "磁",
  "101460": "典型",
  "101461": "則",
  "101462": "冻",
  "101463": "欠",
  "101464": "不久",
  "101465": "浦",
  "101466": "魅",
  "101467": "开了",
  "101468": "使用者",
  "101469": "这款",
  "101470": "專",
  "101471": "脱贫",
  "101472": "攻坚",
  "101473": "算是",
  "101474": "稀",
  "101475": "无人",
  "101476": "堵",
  "101477": "奏",
  "101478": "都市",
  "101479": "可见",
  "101480": "不出",
  "101481": "添",
  "101482": "亏",
  "101483": "美好",
  "101484": "胖",
  "101485": "韵",
  "101486": "标志",
  "101487": "节能",
  "101488": "披",
  "101489": "尺",
  "101490": "寸",
  "101491": "一代",
  "101492": "颗",
  "101493": "耶",
  "101494": "蒸",
  "101495": "單",
  "101496": "滿",
  "101497": "猜",
  "101498": "浆",
  "101499": "埃",
  "101500": "千万",
  "101501": "赌",
  "101502": "聲",
  "101503": "作风",
  "101504": "質",
  "101505": "寨",
  "101506": "年人",
  "101507": "印象",
  "101508": "桶",
  "101509": "撤",
  "101510": "十五",
  "101511": "毅",
  "101512": "沪",
  "101513": "国有",
  "101514": "大量的",
  "101515": "御",
  "101516": "寓",
  "101517": "視",
  "101518": "漂亮",
  "101519": "眠",
  "101520": "炭",
  "101521": "黎",
  "101522": "虹",
  "101523": "利亚",
  "101524": "證",
  "101525": "浏",
  "101526": "十八",
  "101527": "丢",
  "101528": "辽",
  "101529": "有一些",
  "101530": "慈",
  "101531": "停车",
  "101532": "宠",
  "101533": "解放",
  "101534": "有多",
  "101535": "邊",
  "101536": "常见",
  "101537": "抹",
  "101538": "纤",
  "101539": "親",
  "101540": "框",
  "101541": "莞",
  "101542": "氧化",
  "101543": "这件",
  "101544": "凰",
  "101545": "柴",
  "101546": "发电",
  "101547": "鼠",
  "101548": "转化",
  "101549": "娃",
  "101550": "挤",
  "101551": "罩",
  "101552": "密切",
  "101553": "我不",
  "101554": "高新",
  "101555": "一篇",
  "101556": "进程",
  "101557": "衰",
  "101558": "还不",
  "101559": "煌",
  "101560": "新华",
  "101561": "肿",
  "101562": "滩",
  "101563": "一流",
  "101564": "诈",
  "101565": "实体",
  "101566": "外国",
  "101567": "躲",
  "101568": "赠",
  "101569": "覺",
  "101570": "條",
  "101571": "不见",
  "101572": "訊",
  "101573": "匹",
  "101574": "卵",
  "101575": "燥",
  "101576": "慕",
  "101577": "齿",
  "101578": "宴",
  "101579": "饼",
  "101580": "葡萄",
  "101581": "小心",
  "101582": "恼",
  "101583": "陌",
  "101584": "昂",
  "101585": "價",
  "101586": "芝",
  "101587": "每个人",
  "101588": "前提",
  "101589": "体会",
  "101590": "標",
  "101591": "搜狐",
  "101592": "对其",
  "101593": "丧",
  "101594": "蜂",
  "101595": "浸",
  "101596": "調",
  "101597": "坪",
  "101598": "颖",
  "101599": "名为",
  "101600": "笼",
  "101601": "舌",
  "101602": "本书",
  "101603": "聯",
  "101604": "纺",
  "101605": "简直",
  "101606": "離",
  "101607": "美的",
  "101608": "隨",
  "101609": "高峰",
  "101610": "这家",
  "101611": "催",
  "101612": "尸",
  "101613": "硕士",
  "101614": "護",
  "101615": "谨",
  "101616": "昏",
  "101617": "政协",
  "101618": "衔",
  "101619": "習",
  "101620": "園",
  "101621": "国民",
  "101622": "主角",
  "101623": "裕",
  "101624": "伪",
  "101625": "庞",
  "101626": "民营",
  "101627": "惧",
  "101628": "秘书",
  "101629": "痕",
  "101630": "百分",
  "101631": "溶",
  "101632": "无疑",
  "101633": "的眼",
  "101634": "擎",
  "101635": "伟大",
  "101636": "彰",
  "101637": "公安局",
  "101638": "糕",
  "101639": "弥",
  "101640": "備",
  "101641": "乾",
  "101642": "毫不",
  "101643": "注明",
  "101644": "副总",
  "101645": "愉",
  "101646": "敦",
  "101647": "馨",
  "101648": "攀",
  "101649": "逝",
  "101650": "可靠",
  "101651": "夸",
  "101652": "團",
  "101653": "面上",
  "101654": "抖",
  "101655": "脆",
  "101656": "驰",
  "101657": "伐",
  "101658": "妨",
  "101659": "定了",
  "101660": "糊",
  "101661": "歡",
  "101662": "部长",
  "101663": "秉",
  "101664": "舆",
  "101665": "刑事",
  "101666": "吵",
  "101667": "椒",
  "101668": "術",
  "101669": "豫",
  "101670": "菩",
  "101671": "孵",
  "101672": "饲",
  "101673": "就好",
  "101674": "堪",
  "101675": "三角",
  "101676": "场比赛",
  "101677": "不停",
  "101678": "擅",
  "101679": "全文",
  "101680": "況",
  "101681": "学位",
  "101682": "汰",
  "101683": "領",
  "101684": "叠",
  "101685": "際",
  "101686": "帐",
  "101687": "看出",
  "101688": "匠",
  "101689": "局面",
  "101690": "泌",
  "101691": "谊",
  "101692": "同期",
  "101693": "投标",
  "101694": "奴",
  "101695": "来看看",
  "101696": "脾",
  "101697": "螺",
  "101698": "歉",
  "101699": "盯",
  "101700": "税务",
  "101701": "廊",
  "101702": "掩",
  "101703": "慨",
  "101704": "盼",
  "101705": "芒",
  "101706": "讀",
  "101707": "挣",
  "101708": "茅",
  "101709": "斥",
  "101710": "椅",
  "101711": "到来",
  "101712": "著作",
  "101713": "狱",
  "101714": "二手",
  "101715": "从来",
  "101716": "疲",
  "101717": "床上",
  "101718": "新浪",
  "101719": "泄",
  "101720": "增值",
  "101721": "丛",
  "101722": "暑",
  "101723": "从业",
  "101724": "淋",
  "101725": "多样",
  "101726": "朴",
  "101727": "份额",
  "101728": "枣",
  "101729": "西省",
  "101730": "本质",
  "101731": "深深",
  "101732": "艇",
  "101733": "绵",
  "101734": "产值",
  "101735": "漠",
  "101736": "腻",
  "101737": "筛",
  "101738": "厌",
  "101739": "恭",
  "101740": "嫌疑",
  "101741": "戶",
  "101742": "滞",
  "101743": "膀",
  "101744": "劣",
  "101745": "座谈",
  "101746": "常态",
  "101747": "的情",
  "101748": "覽",
  "101749": "寂",
  "101750": "匆",
  "101751": "臺",
  "101752": "顯",
  "101753": "畏",
  "101754": "遣",
  "101755": "卜",
  "101756": "等奖",
  "101757": "責",
  "101758": "溯",
  "101760": "点头",
  "101761": "蓬",
  "101762": "決",
  "101763": "酬",
  "101764": "遊",
  "101765": "購",
  "101766": "註冊",
  "101767": "本报",
  "101768": "絕",
  "101769": "活性",
  "101770": "兑",
  "101771": "錯",
  "101772": "冶",
  "101773": "喻",
  "101774": "準",
  "101775": "肢",
  "101776": "溃",
  "101777": "旬",
  "101778": "削",
  "101779": "理事",
  "101780": "屠",
  "101781": "沧",
  "101782": "蚀",
  "101783": "電子",
  "101784": "为止",
  "101785": "常委",
  "101786": "終",
  "101787": "銷",
  "101788": "狀",
  "101789": "侣",
  "101790": "胀",
  "101791": "議",
  "101792": "用车",
  "101793": "噪",
  "101794": "歷",
  "101795": "協",
  "101796": "刹",
  "101797": "竟是",
  "101798": "驗",
  "101799": "萝",
  "101800": "癫",
  "101801": "痫",
  "101802": "歧",
  "101803": "弊",
  "101804": "媽",
  "101805": "珊",
  "101806": "衷",
  "101807": "霉",
  "101808": "基督",
  "101809": "隱",
  "101810": "氨",
  "101811": "绸",
  "101812": "尼斯",
  "101813": "烘",
  "101814": "期内",
  "101815": "谅",
  "101816": "雇",
  "101817": "隙",
  "101818": "喉",
  "101819": "剥",
  "101820": "痘",
  "101821": "挽",
  "101822": "瓣",
  "101823": "湛",
  "101824": "樱",
  "101825": "澎",
  "101826": "湃",
  "101827": "冬奥",
  "101828": "棵",
  "101829": "宰",
  "101830": "垒",
  "101831": "構",
  "101832": "侈",
  "101833": "茄",
  "101834": "嘿",
  "101835": "菇",
  "101836": "療",
  "101837": "劃",
  "101839": "蔽",
  "101840": "瞭",
  "101841": "敞",
  "101842": "乖",
  "101843": "韧",
  "101844": "辜",
  "101845": "懈",
  "101846": "佣",
  "101847": "瞻",
  "101848": "埔",
  "101849": "舅",
  "101850": "实事",
  "101852": "姥",
  "101853": "絡",
  "101854": "嘻",
  "101855": "畢",
  "101856": "沃尔",
  "101857": "迄",
  "101858": "肇",
  "101859": "慑",
  "101882": "要求",
  "101883": "一些",
  "101884": "实现",
  "101885": "而且",
  "101886": "因此",
  "101887": "由于",
  "101888": "关于",
  "101889": "然后",
  "101890": "推动",
  "101891": "一样",
  "101892": "按照",
  "101893": "这样的",
  "101894": "形成",
  "101895": "有些",
  "101896": "更加",
  "101897": "经过",
  "101898": "建议",
  "101899": "治疗",
  "101900": "你们",
  "101901": "才能",
  "101902": "促进",
  "101903": "员工",
  "101904": "体验",
  "101905": "與",
  "101906": "做好",
  "101907": "保证",
  "101908": "整个",
  "101909": "是一个",
  "101910": "采用",
  "101911": "理论",
  "101912": "比如",
  "101913": "上的",
  "101914": "推荐",
  "101915": "申请",
  "101916": "天空",
  "101917": "部落",
  "101918": "十分",
  "101919": "来自",
  "101920": "之间",
  "101921": "调整",
  "101922": "每天",
  "101923": "调查",
  "101924": "患者",
  "101925": "过程中",
  "101926": "香港",
  "101927": "广告",
  "101928": "面对",
  "101929": "满足",
  "101930": "长期",
  "101931": "规范",
  "101932": "整体",
  "101933": "改变",
  "101934": "智慧",
  "101935": "妈妈",
  "101936": "如今",
  "101937": "合同",
  "101938": "都会",
  "101939": "儿童",
  "101940": "减少",
  "101941": "音乐",
  "101942": "经常",
  "101943": "上市",
  "101944": "优秀",
  "101945": "的重要",
  "101946": "一条",
  "101947": "海外",
  "101948": "另外",
  "101949": "一家",
  "101950": "压力",
  "101951": "大型",
  "101952": "看着",
  "101953": "刀",
  "101954": "幸福",
  "101955": "推广",
  "101956": "君",
  "101957": "徐",
  "101958": "找到",
  "101959": "于是",
  "101960": "自身",
  "101961": "一位",
  "101962": "土地",
  "101963": "加入",
  "101964": "探索",
  "101965": "梁",
  "101966": "主动",
  "101967": "就业",
  "101968": "女性",
  "101969": "突破",
  "101970": "不同的",
  "101971": "运输",
  "101972": "自由",
  "101973": "居民",
  "101974": "此次",
  "101975": "的时间",
  "101976": "家长",
  "101977": "一个人",
  "101978": "检测",
  "101979": "内部",
  "101980": "广州",
  "101981": "直播",
  "101982": "从而",
  "101983": "贷款",
  "101984": "召开",
  "101985": "改造",
  "101986": "人生",
  "101987": "展示",
  "101988": "每年",
  "101989": "女人",
  "101990": "的方式",
  "101991": "效率",
  "101992": "山东",
  "101993": "渠道",
  "101994": "似乎",
  "101995": "案件",
  "101996": "利益",
  "101997": "看看",
  "101998": "心里",
  "101999": "维护",
  "102000": "宝宝",
  "102001": "网上",
  "102002": "论坛",
  "102003": "就可以",
  "102004": "不足",
  "102005": "恢复",
  "102006": "布局",
  "102007": "贡献",
  "102008": "下降",
  "102009": "掌握",
  "102010": "皮肤",
  "102011": "工具",
  "102012": "重庆",
  "102013": "品质",
  "102014": "推出",
  "102015": "男人",
  "102016": "承担",
  "102017": "突出",
  "102018": "而言",
  "102019": "沟",
  "102020": "协调",
  "102021": "是什么",
  "102022": "汤",
  "102023": "撑",
  "102024": "独立",
  "102025": "环节",
  "102026": "扩大",
  "102027": "洪",
  "102028": "杰",
  "102029": "盐",
  "102030": "仁",
  "102031": "涉及",
  "102032": "老人",
  "102033": "即使",
  "102034": "南京",
  "102035": "配合",
  "102036": "鬼",
  "102037": "父亲",
  "102038": "罗斯",
  "102039": "小区",
  "102040": "教授",
  "102041": "决策",
  "102042": "预计",
  "102043": "本人",
  "102044": "伯",
  "102045": "竹",
  "102046": "到底",
  "102047": "市民",
  "102048": "出口",
  "102049": "采购",
  "102050": "总结",
  "102051": "武汉",
  "102052": "加大",
  "102053": "广东",
  "102054": "流程",
  "102055": "人口",
  "102056": "如果你",
  "102057": "出去",
  "102058": "凉",
  "102059": "农民",
  "102060": "现象",
  "102061": "力度",
  "102062": "给予",
  "102063": "党委",
  "102064": "语言",
  "102065": "线上",
  "102066": "怎样",
  "102067": "儿子",
  "102068": "确实",
  "102069": "之外",
  "102070": "都在",
  "102071": "艾",
  "102072": "的情况",
  "102073": "里的",
  "102074": "围绕",
  "102075": "更多的",
  "102076": "依法",
  "102077": "公园",
  "102078": "家里",
  "102079": "母亲",
  "102080": "不再",
  "102081": "苹",
  "102082": "法院",
  "102083": "韩国",
  "102084": "相当",
  "102085": "不知",
  "102086": "评估",
  "102087": "不用",
  "102088": "顺利",
  "102089": "重视",
  "102090": "财务",
  "102091": "他們",
  "102092": "发行",
  "102093": "专门",
  "102094": "具备",
  "102095": "并不是",
  "102096": "足球",
  "102097": "鞋",
  "102098": "发表",
  "102099": "永远",
  "102100": "营养",
  "102101": "配套",
  "102102": "整合",
  "102103": "贺",
  "102104": "回答",
  "102105": "收益",
  "102106": "也许",
  "102107": "車",
  "102108": "接触",
  "102109": "攻击",
  "102110": "四川",
  "102111": "性能",
  "102112": "回到",
  "102113": "腰",
  "102114": "也没有",
  "102115": "弄",
  "102116": "设立",
  "102117": "防控",
  "102118": "技巧",
  "102119": "通常",
  "102120": "财政",
  "102121": "部署",
  "102122": "场景",
  "102123": "江苏",
  "102124": "表达",
  "102125": "喷",
  "102126": "女儿",
  "102127": "舶",
  "102128": "給",
  "102129": "会员",
  "102130": "或许",
  "102131": "亩",
  "102132": "东方",
  "102133": "天津",
  "102134": "近年",
  "102135": "看来",
  "102136": "比例",
  "102137": "岩",
  "102138": "铜",
  "102139": "玻",
  "102140": "实验",
  "102141": "思维",
  "102142": "担心",
  "102143": "沈",
  "102144": "身边",
  "102145": "深化",
  "102146": "精准",
  "102147": "私服",
  "102148": "消防",
  "102149": "去了",
  "102150": "细胞",
  "102151": "球队",
  "102152": "明星",
  "102153": "食物",
  "102154": "很快",
  "102155": "让你",
  "102156": "信用",
  "102157": "唯一",
  "102158": "其它",
  "102159": "等方面",
  "102160": "律师",
  "102161": "死亡",
  "102162": "柳",
  "102163": "一批",
  "102164": "上涨",
  "102165": "机场",
  "102166": "形势",
  "102167": "愿意",
  "102168": "集体",
  "102169": "新型",
  "102170": "损失",
  "102171": "書",
  "102172": "下午",
  "102173": "每次",
  "102174": "成就",
  "102175": "公路",
  "102176": "虫",
  "102177": "咱",
  "102178": "西安",
  "102179": "最佳",
  "102180": "科研",
  "102181": "复杂",
  "102182": "机器",
  "102183": "爱情",
  "102184": "照片",
  "102185": "年龄",
  "102186": "資料",
  "102187": "粗",
  "102188": "准确",
  "102189": "加上",
  "102190": "出版",
  "102191": "谐",
  "102192": "家居",
  "102193": "背景",
  "102194": "一线",
  "102195": "事项",
  "102196": "动作",
  "102197": "祥",
  "102198": "总体",
  "102199": "房子",
  "102200": "也就是",
  "102201": "大概",
  "102202": "高效",
  "102203": "吹",
  "102204": "授权",
  "102205": "附近",
  "102206": "案例",
  "102207": "闹",
  "102208": "爸爸",
  "102209": "彩票",
  "102210": "怒",
  "102211": "举报",
  "102212": "普遍",
  "102213": "留下",
  "102214": "衣服",
  "102215": "无论是",
  "102216": "充满",
  "102217": "深度",
  "102218": "桑",
  "102219": "截至",
  "102220": "带来的",
  "102221": "陵",
  "102222": "感情",
  "102223": "赚",
  "102224": "哪些",
  "102225": "整改",
  "102226": "成熟",
  "102227": "娜",
  "102228": "鼻",
  "102229": "矛",
  "102230": "盾",
  "102231": "好好",
  "102232": "第四",
  "102233": "冠军",
  "102234": "财富",
  "102235": "最好的",
  "102236": "车型",
  "102237": "門",
  "102238": "即将",
  "102239": "分为",
  "102240": "青岛",
  "102241": "纷纷",
  "102242": "今日",
  "102243": "平衡",
  "102244": "平方米",
  "102245": "那种",
  "102246": "出生",
  "102247": "青春",
  "102248": "人群",
  "102249": "人工",
  "102250": "之下",
  "102251": "湖北",
  "102252": "在此",
  "102253": "博士",
  "102254": "时刻",
  "102255": "河北",
  "102256": "放弃",
  "102257": "通道",
  "102258": "森林",
  "102259": "疆",
  "102260": "數",
  "102261": "芳",
  "102262": "打击",
  "102263": "曹",
  "102264": "化学",
  "102265": "想象",
  "102266": "万人",
  "102267": "财经",
  "102268": "元素",
  "102269": "会计",
  "102270": "全体",
  "102271": "愛",
  "102272": "高中",
  "102273": "机遇",
  "102274": "声音",
  "102275": "旅行",
  "102276": "浩",
  "102277": "柱",
  "102278": "少年",
  "102279": "国外",
  "102280": "著名",
  "102281": "生存",
  "102282": "姜",
  "102283": "带领",
  "102284": "颜色",
  "102285": "上下",
  "102286": "产业链",
  "102287": "更好的",
  "102288": "岭",
  "102289": "优惠",
  "102290": "便是",
  "102291": "內容",
  "102292": "一只",
  "102293": "琴",
  "102294": "梦想",
  "102295": "租赁",
  "102296": "开启",
  "102297": "购物",
  "102298": "包含",
  "102299": "利率",
  "102300": "起了",
  "102301": "有力",
  "102302": "那里",
  "102303": "审批",
  "102304": "对手",
  "102305": "现金",
  "102306": "天然",
  "102307": "盒",
  "102308": "爽",
  "102309": "必然",
  "102310": "化工",
  "102311": "专利",
  "102312": "啡",
  "102313": "开心",
  "102314": "人体",
  "102315": "道士",
  "102316": "态度",
  "102317": "空调",
  "102318": "招商",
  "102319": "姻",
  "102320": "第五",
  "102321": "棒",
  "102322": "一系列",
  "102323": "危机",
  "102324": "转变",
  "102325": "场所",
  "102326": "鸣",
  "102327": "房间",
  "102328": "逼",
  "102329": "试点",
  "102330": "对外",
  "102331": "出台",
  "102332": "在这",
  "102333": "厂家",
  "102334": "巨大",
  "102335": "简介",
  "102336": "看了",
  "102337": "党建",
  "102338": "指挥",
  "102339": "石油",
  "102340": "不可能",
  "102341": "莲",
  "102342": "不太",
  "102343": "创意",
  "102344": "第一个",
  "102345": "贵州",
  "102346": "过了",
  "102347": "本来",
  "102348": "道德",
  "102349": "答案",
  "102350": "陶",
  "102351": "一路",
  "102352": "肖",
  "102353": "清洁",
  "102354": "有机",
  "102355": "名单",
  "102356": "東",
  "102357": "呼吸",
  "102358": "丈",
  "102359": "福建",
  "102360": "试验",
  "102361": "引发",
  "102362": "也没",
  "102363": "不住",
  "102364": "熟悉",
  "102365": "萬",
  "102366": "不良",
  "102367": "砖",
  "102368": "致力",
  "102369": "签订",
  "102370": "吊",
  "102371": "侯",
  "102372": "瘦",
  "102373": "姑娘",
  "102374": "斤",
  "102375": "妻子",
  "102376": "春节",
  "102377": "爬",
  "102378": "曝",
  "102379": "热情",
  "102380": "长沙",
  "102381": "营造",
  "102382": "酷",
  "102383": "铝",
  "102384": "基本上",
  "102385": "周围",
  "102386": "什麼",
  "102387": "认可",
  "102388": "分子",
  "102389": "一方面",
  "102390": "轴",
  "102391": "強",
  "102392": "马上",
  "102393": "雾",
  "102394": "臣",
  "102395": "尿",
  "102396": "生意",
  "102397": "安徽",
  "102398": "神经",
  "102399": "出席",
  "102400": "药品",
  "102401": "理由",
  "102402": "协同",
  "102403": "流动",
  "102404": "发动",
  "102405": "坚定",
  "102406": "表明",
  "102407": "后面",
  "102408": "义务",
  "102409": "妖",
  "102410": "有可能",
  "102411": "年轻人",
  "102412": "大陆",
  "102413": "岳",
  "102414": "不起",
  "102415": "瞬间",
  "102416": "不得不",
  "102417": "签约",
  "102418": "合格",
  "102419": "党支部",
  "102420": "济南",
  "102421": "便利",
  "102422": "随时",
  "102423": "奉",
  "102424": "称为",
  "102425": "产权",
  "102426": "吕",
  "102427": "盆",
  "102428": "课堂",
  "102429": "線",
  "102430": "棉",
  "102431": "线下",
  "102432": "自行",
  "102433": "举措",
  "102434": "厦门",
  "102435": "自信",
  "102436": "影视",
  "102437": "仔",
  "102438": "生活中",
  "102439": "权益",
  "102440": "白色",
  "102441": "就不",
  "102442": "进展",
  "102443": "每日",
  "102444": "供给",
  "102445": "权利",
  "102446": "无数",
  "102447": "理财",
  "102448": "依旧",
  "102449": "上午",
  "102450": "识别",
  "102451": "盈利",
  "102452": "砂",
  "102453": "许可",
  "102454": "同事",
  "102455": "嘛",
  "102456": "選",
  "102457": "着力",
  "102458": "门口",
  "102459": "不多",
  "102460": "其次",
  "102461": "碧",
  "102462": "物理",
  "102463": "内心",
  "102464": "百姓",
  "102465": "总统",
  "102466": "干净",
  "102467": "积累",
  "102468": "反馈",
  "102469": "树立",
  "102470": "社交",
  "102471": "秩",
  "102472": "十一",
  "102473": "邓",
  "102474": "驱动",
  "102475": "展览",
  "102476": "舒适",
  "102477": "基因",
  "102478": "差异",
  "102479": "转让",
  "102480": "小姐",
  "102481": "样子",
  "102482": "翔",
  "102483": "高兴",
  "102484": "影响力",
  "102485": "手续",
  "102486": "相同",
  "102487": "相应",
  "102488": "晒",
  "102489": "觀",
  "102490": "市委",
  "102491": "芯",
  "102492": "展现",
  "102493": "地球",
  "102494": "邪",
  "102495": "一定的",
  "102496": "允许",
  "102497": "信任",
  "102498": "扑",
  "102499": "院校",
  "102500": "简称",
  "102501": "做法",
  "102502": "之路",
  "102503": "旗下",
  "102504": "腔",
  "102505": "消失",
  "102506": "世界上",
  "102507": "城乡",
  "102508": "舞台",
  "102509": "很大的",
  "102510": "统筹",
  "102511": "公平",
  "102512": "肾",
  "102513": "的好",
  "102514": "汁",
  "102515": "眼前",
  "102516": "難",
  "102517": "幽",
  "102518": "共产",
  "102519": "主办",
  "102520": "处罚",
  "102521": "庙",
  "102522": "道理",
  "102523": "張",
  "102524": "接着",
  "102525": "猎",
  "102526": "灌",
  "102527": "由此",
  "102528": "人力",
  "102529": "流行",
  "102530": "侠",
  "102531": "可以说",
  "102532": "蒋",
  "102533": "形态",
  "102534": "日子",
  "102535": "漆",
  "102536": "留学",
  "102537": "相關",
  "102538": "最多",
  "102539": "凭借",
  "102540": "公交",
  "102541": "挖掘",
  "102542": "杂志",
  "102543": "主人",
  "102544": "障碍",
  "102545": "校长",
  "102546": "方位",
  "102547": "上班",
  "102548": "多元",
  "102549": "胁",
  "102550": "魅力",
  "102551": "茂",
  "102552": "充电",
  "102553": "强大",
  "102554": "烤",
  "102555": "奋斗",
  "102556": "实用",
  "102557": "阁",
  "102558": "给了",
  "102559": "本科",
  "102560": "栋",
  "102561": "拨",
  "102562": "教练",
  "102563": "都知道",
  "102564": "毕业生",
  "102565": "碗",
  "102566": "垂",
  "102567": "讼",
  "102568": "宁波",
  "102569": "学者",
  "102570": "谢谢",
  "102571": "城镇",
  "102572": "怎么办",
  "102573": "達",
  "102574": "成交",
  "102575": "潜力",
  "102576": "卧",
  "102577": "新开",
  "102578": "配备",
  "102579": "主力",
  "102580": "味道",
  "102581": "烂",
  "102582": "飞行",
  "102583": "嫁",
  "102584": "大大",
  "102585": "给大家",
  "102586": "外面",
  "102587": "醉",
  "102588": "发言",
  "102589": "早餐",
  "102590": "各自",
  "102591": "宙",
  "102592": "荣誉",
  "102593": "披露",
  "102594": "類",
  "102595": "内的",
  "102596": "肪",
  "102597": "辐",
  "102598": "泵",
  "102599": "抛",
  "102600": "星期",
  "102601": "一带",
  "102602": "生素",
  "102603": "经销",
  "102604": "凶",
  "102605": "地上",
  "102606": "命运",
  "102607": "哲",
  "102608": "上去",
  "102609": "文物",
  "102610": "译",
  "102611": "振兴",
  "102612": "长时间",
  "102613": "祭",
  "102614": "合肥",
  "102615": "违规",
  "102616": "聪",
  "102617": "低于",
  "102618": "适当",
  "102619": "有序",
  "102620": "本网",
  "102621": "留言",
  "102622": "想法",
  "102623": "签署",
  "102624": "姚",
  "102625": "性格",
  "102626": "蒙古",
  "102627": "柏",
  "102628": "垫",
  "102629": "学历",
  "102630": "仅仅",
  "102631": "讲话",
  "102632": "锐",
  "102633": "怖",
  "102634": "剪",
  "102635": "苍",
  "102636": "吓",
  "102637": "强烈",
  "102638": "健全",
  "102639": "疯",
  "102640": "古代",
  "102641": "奈",
  "102642": "不然",
  "102643": "乡镇",
  "102644": "朋友们",
  "102645": "傅",
  "102646": "聽",
  "102647": "个性",
  "102648": "法规",
  "102649": "小镇",
  "102650": "画面",
  "102651": "第六",
  "102652": "網路",
  "102653": "前景",
  "102654": "听说",
  "102655": "传媒",
  "102656": "条例",
  "102657": "别的",
  "102658": "不懂",
  "102659": "顾问",
  "102660": "强度",
  "102661": "阿里",
  "102662": "走势",
  "102663": "帽",
  "102664": "的确",
  "102665": "区别",
  "102666": "錢",
  "102667": "主管",
  "102668": "一看",
  "102669": "斜",
  "102670": "存在的",
  "102671": "仲",
  "102672": "危害",
  "102673": "铭",
  "102674": "游戏中",
  "102675": "酱",
  "102676": "龙头",
  "102677": "人心",
  "102678": "退休",
  "102679": "浏览",
  "102680": "劫",
  "102681": "防治",
  "102682": "箭",
  "102683": "屈",
  "102684": "辽宁",
  "102685": "壤",
  "102686": "迎来",
  "102687": "鞍",
  "102688": "用来",
  "102689": "大地",
  "102690": "仰",
  "102691": "通讯",
  "102692": "开工",
  "102693": "裤",
  "102694": "如同",
  "102695": "骤",
  "102696": "队员",
  "102697": "轩",
  "102698": "美术",
  "102699": "號",
  "102700": "同一",
  "102701": "圖",
  "102702": "书法",
  "102703": "打印",
  "102704": "含有",
  "102705": "集成",
  "102706": "闷",
  "102707": "市场上",
  "102708": "旁边",
  "102709": "地板",
  "102710": "产生的",
  "102711": "粤",
  "102712": "重组",
  "102713": "血液",
  "102714": "筋",
  "102715": "办事",
  "102716": "常见的",
  "102717": "上半年",
  "102718": "屏幕",
  "102719": "吉林",
  "102720": "巩",
  "102721": "喜爱",
  "102722": "翠",
  "102723": "三种",
  "102724": "框架",
  "102725": "东莞",
  "102726": "甘肃",
  "102727": "芬",
  "102728": "图书",
  "102729": "凤凰",
  "102730": "气候",
  "102731": "尴",
  "102732": "尬",
  "102733": "两天",
  "102734": "辅导",
  "102735": "借款",
  "102736": "日起",
  "102737": "洒",
  "102738": "一度",
  "102739": "蹈",
  "102740": "潭",
  "102741": "扇",
  "102742": "癜",
  "102743": "新兴",
  "102744": "傲",
  "102745": "诸多",
  "102746": "贪",
  "102747": "陷入",
  "102748": "舟",
  "102749": "肺炎",
  "102750": "一样的",
  "102751": "厘",
  "102752": "地理",
  "102753": "投注",
  "102754": "隊",
  "102755": "光伏",
  "102756": "保健",
  "102757": "兔",
  "102758": "公务",
  "102759": "打破",
  "102760": "男孩",
  "102761": "劳务",
  "102762": "你会",
  "102763": "用地",
  "102764": "溢",
  "102765": "发达",
  "102766": "肚",
  "102767": "过于",
  "102768": "臂",
  "102769": "這樣",
  "102770": "轻轻",
  "102771": "中共",
  "102772": "各国",
  "102773": "唇",
  "102774": "实习",
  "102775": "虾",
  "102776": "槽",
  "102777": "不上",
  "102778": "免疫",
  "102779": "占据",
  "102780": "工会",
  "102781": "囊",
  "102782": "航天",
  "102783": "可爱",
  "102784": "斗争",
  "102785": "瘤",
  "102786": "如有",
  "102787": "雖",
  "102788": "对我",
  "102789": "出租",
  "102790": "好看",
  "102791": "太大",
  "102792": "水利",
  "102793": "势力",
  "102794": "全民",
  "102795": "罢",
  "102796": "赢得",
  "102797": "电信",
  "102798": "车间",
  "102799": "時候",
  "102800": "少数",
  "102801": "铸",
  "102802": "关联",
  "102803": "不仅仅",
  "102804": "为您",
  "102805": "咸",
  "102806": "机动",
  "102807": "裙",
  "102808": "响应",
  "102809": "遠",
  "102810": "買",
  "102811": "穴",
  "102812": "墅",
  "102813": "锡",
  "102814": "組",
  "102815": "火车",
  "102816": "資訊",
  "102817": "决赛",
  "102818": "污水",
  "102819": "語",
  "102820": "崛",
  "102821": "紧密",
  "102822": "缺少",
  "102823": "多人",
  "102824": "总书记",
  "102825": "锈",
  "102826": "葛",
  "102827": "忘记",
  "102828": "陌生",
  "102829": "长大",
  "102830": "先进的",
  "102831": "硅",
  "102832": "发明",
  "102833": "婴儿",
  "102834": "扎实",
  "102835": "蛋白",
  "102836": "一百",
  "102837": "目光",
  "102838": "慌",
  "102839": "加油",
  "102840": "吞",
  "102841": "一群",
  "102842": "中介",
  "102843": "帖",
  "102844": "忌",
  "102845": "职能",
  "102846": "广播",
  "102847": "监察",
  "102848": "秘密",
  "102849": "狮",
  "102850": "这条",
  "102851": "逢",
  "102852": "怨",
  "102853": "十六",
  "102854": "試",
  "102855": "说到",
  "102856": "凝聚",
  "102857": "指示",
  "102858": "氢",
  "102859": "弘",
  "102860": "阀",
  "102861": "斩",
  "102862": "項",
  "102863": "一开始",
  "102864": "排行",
  "102865": "在我",
  "102866": "纪录",
  "102867": "抄",
  "102868": "株",
  "102869": "说法",
  "102870": "中药",
  "102871": "好多",
  "102872": "只不过",
  "102873": "留在",
  "102874": "个小时",
  "102875": "认知",
  "102876": "畫",
  "102877": "见过",
  "102878": "小微",
  "102879": "佛山",
  "102880": "眾",
  "102881": "讲述",
  "102882": "梳",
  "102883": "称号",
  "102884": "日晚",
  "102885": "袖",
  "102886": "啤",
  "102887": "未经",
  "102888": "最早",
  "102889": "扮演",
  "102890": "血管",
  "102891": "纱",
  "102892": "情节",
  "102893": "第七",
  "102894": "捧",
  "102895": "仗",
  "102896": "激烈",
  "102897": "无线",
  "102898": "不容易",
  "102899": "开幕",
  "102900": "新生",
  "102901": "专注",
  "102902": "葱",
  "102903": "南海",
  "102904": "營",
  "102905": "起來",
  "102906": "派出",
  "102907": "儒",
  "102908": "侨",
  "102909": "較",
  "102910": "博览",
  "102911": "逾",
  "102912": "匀",
  "102913": "经济学",
  "102914": "渗",
  "102915": "保護",
  "102916": "牺",
  "102917": "牲",
  "102918": "玫",
  "102919": "瑰",
  "102920": "最后一",
  "102921": "政务",
  "102922": "槛",
  "102923": "處理",
  "102924": "隐患",
  "102925": "承包",
  "102926": "極",
  "102927": "桩",
  "102928": "盲",
  "102929": "导向",
  "102930": "致富",
  "102931": "缆",
  "102932": "恋爱",
  "102933": "不动",
  "102934": "给人",
  "102935": "巢",
  "102936": "表情",
  "102937": "东南",
  "102938": "内外",
  "102939": "辈子",
  "102940": "叉",
  "102941": "博会",
  "102942": "功效",
  "102943": "渴",
  "102944": "屬",
  "102945": "排除",
  "102946": "逛",
  "102947": "一会",
  "102948": "不开",
  "102949": "开奖",
  "102950": "黑龙",
  "102951": "黑龙江",
  "102952": "快三",
  "102953": "度假",
  "102954": "坤",
  "102955": "邮件",
  "102956": "懒",
  "102957": "供电",
  "102958": "廣",
  "102959": "好评",
  "102960": "秘书长",
  "102961": "战场",
  "102962": "好奇",
  "102963": "侵权",
  "102964": "憾",
  "102965": "最初",
  "102966": "批发",
  "102967": "厕",
  "102968": "輕",
  "102969": "枯",
  "102970": "业内",
  "102971": "购房",
  "102972": "不在",
  "102973": "纪委",
  "102974": "所需",
  "102975": "市长",
  "102976": "賽",
  "102977": "引擎",
  "102978": "灵魂",
  "102979": "銀",
  "102980": "滤",
  "102981": "睐",
  "102982": "多项",
  "102983": "回头",
  "102984": "艘",
  "102985": "复工",
  "102986": "部件",
  "102987": "紧紧",
  "102988": "某种",
  "102989": "使其",
  "102990": "新人",
  "102991": "枚",
  "102992": "法定",
  "102993": "巴巴",
  "102994": "涵盖",
  "102995": "稻",
  "102996": "拾",
  "102997": "晕",
  "102998": "轿",
  "102999": "通行",
  "103000": "哀",
  "103001": "泊",
  "103002": "温馨",
  "103003": "集聚",
  "103004": "熙",
  "103005": "凑",
  "103006": "十七",
  "103007": "气息",
  "103008": "提供的",
  "103009": "泳",
  "103010": "奥运",
  "103011": "灾害",
  "103012": "净化",
  "103013": "跨越",
  "103014": "哪怕",
  "103015": "響",
  "103016": "增添",
  "103017": "焊",
  "103018": "残疾",
  "103019": "碌",
  "103020": "悔",
  "103021": "见证",
  "103022": "辖区",
  "103023": "心脏",
  "103024": "隧",
  "103025": "卸",
  "103026": "可能性",
  "103027": "有趣",
  "103028": "副书记",
  "103029": "化妆",
  "103030": "係",
  "103031": "棚",
  "103032": "醇",
  "103033": "带头",
  "103034": "須",
  "103035": "追究",
  "103036": "摔",
  "103037": "这部",
  "103038": "不论",
  "103039": "祸",
  "103040": "峻",
  "103041": "違",
  "103042": "生育",
  "103043": "夠",
  "103044": "外交",
  "103045": "评为",
  "103046": "从小",
  "103047": "小小",
  "103048": "饿",
  "103049": "撼",
  "103050": "跨境",
  "103051": "被告",
  "103052": "南宁",
  "103053": "身心",
  "103054": "再生",
  "103055": "所说",
  "103056": "时间内",
  "103057": "列入",
  "103058": "青海",
  "103059": "爱好",
  "103060": "窄",
  "103061": "興",
  "103062": "过渡",
  "103063": "濟",
  "103064": "雀",
  "103065": "审议",
  "103066": "国资",
  "103067": "步伐",
  "103068": "轨道",
  "103069": "信念",
  "103070": "三分",
  "103071": "熬",
  "103072": "孵化",
  "103073": "缠",
  "103074": "郊",
  "103075": "舒服",
  "103076": "纪检",
  "103077": "一下子",
  "103078": "電話",
  "103079": "負",
  "103080": "钥",
  "103081": "匙",
  "103082": "痴",
  "103083": "趁",
  "103084": "绣",
  "103085": "爵",
  "103086": "轰",
  "103087": "骄",
  "103088": "姨",
  "103089": "拘",
  "103090": "猴",
  "103091": "讶",
  "103092": "这座",
  "103093": "獨",
  "103094": "淘汰",
  "103095": "病例",
  "103096": "沙发",
  "103097": "视为",
  "103098": "头条",
  "103099": "必要的",
  "103100": "可谓",
  "103101": "话说",
  "103102": "範",
  "103103": "早点",
  "103104": "枢纽",
  "103105": "羡",
  "103106": "爱国",
  "103107": "突发",
  "103108": "逊",
  "103109": "潍",
  "103110": "荣耀",
  "103111": "蟹",
  "103112": "概率",
  "103113": "很久",
  "103114": "惕",
  "103115": "訴",
  "103116": "圆满",
  "103117": "皱",
  "103118": "分泌",
  "103119": "充足",
  "103120": "看法",
  "103121": "辟",
  "103122": "拦",
  "103123": "择",
  "103124": "对应",
  "103125": "为核心",
  "103126": "腊",
  "103127": "多么",
  "103128": "浑",
  "103129": "宏观",
  "103130": "脖",
  "103131": "合资",
  "103132": "生涯",
  "103133": "实质",
  "103134": "优点",
  "103135": "用水",
  "103136": "寿命",
  "103137": "沫",
  "103138": "吁",
  "103139": "詹",
  "103140": "国防",
  "103141": "崩",
  "103142": "坎",
  "103143": "膏",
  "103144": "一轮",
  "103145": "遗产",
  "103146": "湾区",
  "103147": "绎",
  "103148": "单纯",
  "103149": "澄",
  "103150": "前列",
  "103151": "身影",
  "103152": "默默",
  "103153": "捉",
  "103154": "環",
  "103155": "菊",
  "103156": "怜",
  "103157": "克思",
  "103158": "总局",
  "103159": "燃料",
  "103160": "业态",
  "103161": "各样",
  "103162": "咽",
  "103163": "出色",
  "103164": "初心",
  "103165": "叛",
  "103166": "研讨",
  "103167": "衫",
  "103168": "历程",
  "103169": "禽",
  "103170": "足够的",
  "103171": "荆",
  "103172": "看待",
  "103173": "贩",
  "103174": "决心",
  "103175": "裹",
  "103176": "师范",
  "103177": "垄",
  "103178": "杠",
  "103179": "凸",
  "103180": "犹豫",
  "103181": "热血",
  "103182": "合伙",
  "103183": "酵",
  "103184": "落在",
  "103185": "占地",
  "103186": "衬",
  "103187": "蓉",
  "103188": "愤",
  "103189": "渊",
  "103190": "分数",
  "103191": "笑着",
  "103192": "太平",
  "103193": "炫",
  "103194": "推介",
  "103195": "斯坦",
  "103196": "形容",
  "103197": "擊",
  "103198": "感兴趣",
  "103199": "军人",
  "103200": "凌晨",
  "103201": "对照",
  "103202": "发病",
  "103203": "巾",
  "103204": "舉",
  "103205": "檢",
  "103206": "笑了",
  "103207": "确诊",
  "103208": "负债",
  "103209": "壮大",
  "103210": "戚",
  "103211": "互联",
  "103212": "課",
  "103213": "腦",
  "103214": "旱",
  "103215": "受欢迎",
  "103216": "卉",
  "103217": "院士",
  "103218": "橡",
  "103219": "一对",
  "103220": "辱",
  "103221": "沂",
  "103222": "史上",
  "103223": "搏",
  "103224": "崖",
  "103225": "代谢",
  "103226": "磷",
  "103227": "願",
  "103228": "浇",
  "103229": "常用",
  "103230": "卑",
  "103231": "出国",
  "103232": "诠",
  "103233": "稳步",
  "103234": "经纪",
  "103235": "多多",
  "103236": "所得",
  "103237": "为主题",
  "103238": "一分",
  "103239": "栽",
  "103240": "顧",
  "103241": "纲",
  "103242": "僅",
  "103243": "壓",
  "103244": "優",
  "103245": "翰",
  "103246": "掀",
  "103247": "人为",
  "103248": "媳",
  "103249": "洽",
  "103250": "蝶",
  "103251": "复兴",
  "103252": "会影响",
  "103253": "各界",
  "103254": "那一",
  "103255": "颤",
  "103256": "瀏",
  "103257": "瀏覽",
  "103258": "寞",
  "103259": "可怕",
  "103260": "即时",
  "103261": "畴",
  "103262": "下半年",
  "103263": "笔记",
  "103264": "附加",
  "103265": "热水",
  "103266": "奸",
  "103267": "磅",
  "103268": "杉",
  "103269": "清华",
  "103270": "閱",
  "103271": "簡",
  "103272": "处处",
  "103273": "合金",
  "103274": "河流",
  "103275": "細",
  "103276": "负面",
  "103277": "的真实",
  "103278": "器械",
  "103279": "蒐",
  "103280": "西亚",
  "103281": "巅",
  "103282": "粹",
  "103283": "原文",
  "103284": "枕",
  "103285": "血压",
  "103286": "嚴",
  "103287": "帘",
  "103288": "冀",
  "103289": "挫",
  "103290": "电路",
  "103291": "小伙伴",
  "103292": "蝴",
  "103293": "最快",
  "103294": "拌",
  "103295": "宪",
  "103296": "斷",
  "103297": "翅",
  "103298": "咳",
  "103299": "嗽",
  "103300": "羞",
  "103301": "躺在",
  "103302": "赛车",
  "103303": "沐",
  "103304": "限度",
  "103305": "为一体",
  "103306": "蒜",
  "103307": "幫",
  "103308": "搅",
  "103309": "勋",
  "103310": "剖",
  "103311": "纳税",
  "103312": "长效",
  "103313": "罕",
  "103314": "副本",
  "103315": "積",
  "103316": "钩",
  "103317": "繼",
  "103318": "国土",
  "103319": "載",
  "103320": "不忘",
  "103321": "警示",
  "103322": "灿",
  "103323": "心得",
  "103324": "愚",
  "103325": "忽略",
  "103326": "回事",
  "103327": "占有",
  "103328": "淄",
  "103329": "牡",
  "103330": "监事",
  "103331": "翡",
  "103332": "针对性",
  "103333": "窃",
  "103334": "製",
  "103335": "膝",
  "103336": "糟",
  "103337": "港澳",
  "103338": "太太",
  "103339": "澡",
  "103340": "细化",
  "103341": "售后",
  "103342": "实在是",
  "103343": "竣",
  "103344": "獲",
  "103345": "倾向",
  "103346": "引用",
  "103347": "鹅",
  "103348": "笑容",
  "103349": "乐趣",
  "103350": "民政",
  "103351": "门户",
  "103352": "屁",
  "103353": "迷失",
  "103354": "锌",
  "103355": "小康",
  "103356": "勉",
  "103357": "泼",
  "103358": "例子",
  "103359": "三位",
  "103360": "廠",
  "103361": "蔓",
  "103362": "广阔",
  "103363": "耍",
  "103364": "老虎",
  "103365": "募集",
  "103366": "脚步",
  "103367": "拯",
  "103368": "字号",
  "103369": "焰",
  "103370": "颠",
  "103371": "蚂",
  "103372": "蚁",
  "103373": "飯",
  "103374": "人性",
  "103375": "撰",
  "103376": "厢",
  "103377": "局限",
  "103378": "未成",
  "103379": "哪儿",
  "103380": "大发",
  "103381": "不定",
  "103382": "征求",
  "103383": "郵",
  "103384": "债权",
  "103385": "爱你",
  "103386": "躁",
  "103387": "仅供",
  "103388": "远处",
  "103389": "醛",
  "103390": "僵",
  "103391": "积极性",
  "103392": "採",
  "103393": "前三",
  "103394": "于一体",
  "103395": "瞄",
  "103396": "睁",
  "103397": "沸",
  "103398": "共赢",
  "103399": "退役",
  "103400": "贝尔",
  "103401": "掏",
  "103402": "戲",
  "103403": "衍",
  "103404": "锂",
  "103405": "万余",
  "103406": "科创",
  "103407": "演唱",
  "103408": "欧元",
  "103409": "淡淡",
  "103410": "青山",
  "103411": "藝",
  "103412": "绽",
  "103413": "令牌",
  "103414": "集群",
  "103415": "作物",
  "103416": "瀑",
  "103417": "夯",
  "103418": "网游",
  "103419": "八大",
  "103420": "骚",
  "103421": "誓",
  "103422": "会展",
  "103423": "党史",
  "103424": "检察院",
  "103425": "喘",
  "103426": "阱",
  "103427": "而出",
  "103428": "通车",
  "103429": "钓",
  "103430": "情人",
  "103431": "減",
  "103432": "中秋",
  "103433": "爭",
  "103434": "只剩",
  "103435": "昔",
  "103436": "野生",
  "103437": "硫",
  "103438": "萝卜",
  "103439": "抵抗",
  "103440": "癫痫",
  "103441": "陀",
  "103442": "蔚",
  "103443": "帜",
  "103444": "满满",
  "103445": "菱",
  "103446": "隆重",
  "103447": "星级",
  "103448": "潇",
  "103449": "公元",
  "103450": "谣",
  "103451": "比亚",
  "103452": "桌子",
  "103453": "赣",
  "103454": "貼",
  "103455": "愿望",
  "103456": "顽",
  "103457": "派遣",
  "103458": "祛",
  "103459": "媚",
  "103460": "阜",
  "103461": "葫",
  "103462": "芦",
  "103463": "泻",
  "103464": "塌",
  "103465": "狭",
  "103466": "廉政",
  "103467": "契机",
  "103468": "旗舰",
  "103469": "惫",
  "103470": "严厉",
  "103471": "友情",
  "103472": "妊",
  "103473": "娠",
  "103474": "哪家",
  "103475": "膨",
  "103476": "趟",
  "103477": "挪",
  "103478": "虐",
  "103479": "頁",
  "103480": "瞩",
  "103481": "麟",
  "103482": "稣",
  "103483": "联通",
  "103484": "叮",
  "103485": "王者",
  "103486": "不确定",
  "103487": "瑜",
  "103488": "谎",
  "103489": "牢记",
  "103490": "碼",
  "103491": "护肤",
  "103492": "顷",
  "103493": "焕",
  "103494": "做强",
  "103495": "隱私",
  "103496": "隱私權",
  "103497": "受害",
  "103498": "不由",
  "103499": "烹",
  "103500": "饪",
  "103501": "驳",
  "103502": "伽",
  "103503": "丝绸",
  "103504": "襄",
  "103505": "十余",
  "103506": "麗",
  "103507": "權利",
  "103508": "聞",
  "103509": "古老",
  "103510": "遏",
  "103511": "各式",
  "103512": "就行",
  "103513": "入境",
  "103514": "烁",
  "103515": "蜘",
  "103516": "蛛",
  "103517": "纬",
  "103518": "矫",
  "103519": "軟",
  "103520": "洗衣",
  "103521": "愧",
  "103522": "预案",
  "103523": "霆",
  "103524": "深厚",
  "103525": "阿拉",
  "103526": "写字",
  "103527": "卦",
  "103528": "镀",
  "103529": "模样",
  "103530": "傍",
  "103531": "損",
  "103532": "薯",
  "103533": "堅",
  "103534": "公积",
  "103535": "討",
  "103536": "传染",
  "103537": "毯",
  "103538": "理工",
  "103539": "冷链",
  "103540": "立方",
  "103541": "梭",
  "103542": "圣诞",
  "103543": "综艺",
  "103544": "玩笑",
  "103545": "想不到",
  "103546": "摇头",
  "103547": "淹",
  "103548": "假日",
  "103549": "倘",
  "103550": "耽",
  "103551": "莓",
  "103552": "執",
  "103553": "自贸",
  "103554": "半天",
  "103555": "檔",
  "103556": "澎湃",
  "103557": "镑",
  "103558": "丫",
  "103559": "里程",
  "103560": "开荒",
  "103561": "菏",
  "103562": "宝贵",
  "103563": "譬",
  "103564": "啟",
  "103565": "柠",
  "103566": "檬",
  "103567": "驭",
  "103568": "汛",
  "103569": "熊猫",
  "103570": "蕉",
  "103571": "随之",
  "103572": "屑",
  "103573": "较强",
  "103574": "胳",
  "103575": "膊",
  "103576": "静静",
  "103577": "咪",
  "103578": "招呼",
  "103579": "代言",
  "103580": "信箱",
  "103581": "装配",
  "103582": "悍",
  "103583": "单车",
  "103584": "萎",
  "103585": "多彩",
  "103586": "陸",
  "103587": "从严",
  "103588": "橄",
  "103589": "榄",
  "103590": "逮",
  "103591": "里斯",
  "103592": "姿态",
  "103593": "太极",
  "103594": "針",
  "103595": "溉",
  "103596": "迭",
  "103597": "秸",
  "103598": "秆",
  "103599": "工委",
  "103600": "汕",
  "103601": "聆",
  "103602": "佬",
  "103603": "缅",
  "103604": "甸",
  "103605": "副局长",
  "103606": "闺",
  "103607": "誤",
  "103608": "褐",
  "103609": "不限",
  "103610": "腕",
  "103611": "呕",
  "103612": "矶",
  "103613": "农家",
  "103614": "管委会",
  "103615": "饺",
  "103616": "芜",
  "103617": "澈",
  "103618": "詢",
  "103619": "威尼斯",
  "103620": "何况",
  "103621": "小伙",
  "103622": "奢侈",
  "103623": "这篇",
  "103624": "诵",
  "103625": "章程",
  "103626": "紀",
  "103627": "鐘",
  "103628": "邢",
  "103629": "糙",
  "103630": "缀",
  "103631": "乒",
  "103632": "乓",
  "103633": "牢固",
  "103634": "坞",
  "103635": "弈",
  "103636": "例外",
  "103637": "廳",
  "103638": "规章",
  "103639": "芙",
  "103640": "篷",
  "103641": "躯",
  "103642": "栈",
  "103643": "坚实",
  "103644": "基建",
  "103645": "着眼",
  "103646": "練",
  "103647": "葩",
  "103648": "缚",
  "103649": "榆",
  "103650": "主動",
  "103651": "祀",
  "103652": "互通",
  "103653": "尤为",
  "103654": "宛",
  "103655": "骼",
  "103656": "汲",
  "103657": "侃",
  "103658": "悠久",
  "103659": "摧",
  "103660": "拇",
  "103661": "髓",
  "103662": "麒",
  "103663": "陛",
  "103664": "枸",
  "103665": "杞",
  "103666": "贬",
  "103667": "小龙",
  "103668": "哮",
  "103669": "蓬勃",
  "103670": "匈",
  "103671": "畜牧",
  "103672": "娩",
  "103673": "个多",
  "103674": "沥",
  "103675": "昧",
  "103676": "焚",
  "103677": "抑郁",
  "103678": "疡",
  "103679": "蘑",
  "103680": "過程",
  "103681": "橱",
  "103682": "靓",
  "103683": "大理",
  "103684": "髦",
  "103685": "分辨",
  "103686": "渤",
  "103687": "疤",
  "103688": "动能",
  "103689": "张家",
  "103690": "万千",
  "103691": "滥",
  "103692": "饥",
  "103693": "废弃",
  "103694": "帳",
  "103695": "漳",
  "103696": "豐",
  "103697": "仑",
  "103698": "嫉",
  "103699": "妒",
  "103700": "瞒",
  "103701": "衅",
  "103702": "狸",
  "103703": "征程",
  "103704": "邯",
  "103705": "郸",
  "103706": "祈",
  "103707": "祷",
  "103708": "趴",
  "103709": "结构性",
  "103710": "视听",
  "103711": "謝",
  "103712": "璀",
  "103713": "璨",
  "103714": "出处",
  "103715": "诀",
  "103716": "徘",
  "103717": "徊",
  "103718": "眨",
  "103719": "喇",
  "103720": "叭",
  "103721": "嘲",
  "103722": "畸",
  "103723": "干事",
  "103724": "暧",
  "103725": "沛",
  "103726": "億",
  "103727": "廓",
  "103728": "县长",
  "103729": "胚",
  "103730": "琢",
  "103731": "筷",
  "103732": "釋",
  "103733": "侮",
  "103734": "吩",
  "103735": "咐",
  "103736": "匿",
  "103737": "抬起",
  "103738": "泣",
  "103739": "涤",
  "103740": "麽",
  "103741": "曙",
  "103742": "副院长",
  "103743": "党和",
  "103744": "散发",
  "103745": "润滑",
  "103746": "哺",
  "103747": "惬",
  "103748": "漫长",
  "103749": "不懈",
  "103750": "埠",
  "103751": "嗓",
  "103752": "老爷",
  "103753": "讽",
  "103754": "战组合",
  "103755": "棠",
  "103756": "全域",
  "103757": "蠢",
  "103758": "诡",
  "103759": "前瞻",
  "103760": "敛",
  "103761": "一封",
  "103762": "幂",
  "103763": "莆",
  "103764": "话语",
  "103765": "细则",
  "103766": "屿",
  "103767": "嵌",
  "103768": "逍",
  "103769": "嘱",
  "103770": "渲",
  "103771": "烯",
  "103772": "睹",
  "103773": "馒",
  "103774": "腥",
  "103775": "抗击",
  "103776": "睫",
  "103777": "荔",
  "103778": "階",
  "103779": "泉水",
  "103780": "謂",
  "103781": "炬",
  "103782": "减排",
  "103783": "踊",
  "103784": "跻",
  "103785": "淌",
  "103786": "霾",
  "103787": "奇纳",
  "103788": "寝",
  "103789": "椎",
  "103790": "柬",
  "103791": "斯基",
  "103792": "公立",
  "103793": "訓",
  "103794": "飙",
  "103795": "驿",
  "103796": "債",
  "103797": "蛙",
  "103798": "篇章",
  "103799": "分支",
  "103800": "上年",
  "103801": "筝",
  "103802": "缤",
  "103803": "老旧",
  "103804": "噬",
  "103805": "朦",
  "103806": "胧",
  "103807": "消費",
  "103808": "擔",
  "103809": "榴",
  "103810": "濒",
  "103811": "糯",
  "103812": "泸",
  "103813": "捆",
  "103814": "绚",
  "103815": "赎",
  "103816": "琐",
  "103817": "赂",
  "103818": "慮",
  "103819": "沌",
  "103820": "焙",
  "103821": "播报",
  "103822": "淇",
  "103823": "切入",
  "103824": "瑕",
  "103825": "疵",
  "103826": "遴",
  "103827": "稚",
  "103828": "穩",
  "103829": "螃",
  "103830": "棕",
  "103831": "憧",
  "103832": "憬",
  "103833": "伺",
  "103834": "毗",
  "103835": "捍",
  "103836": "抉",
  "103837": "紊",
  "103838": "弛",
  "103839": "拭",
  "103840": "族自治",
  "103841": "坷",
  "103842": "競",
  "103843": "詳",
  "103844": "迄今",
  "103845": "谴",
  "103846": "瞭解",
  "103847": "柿",
  "103848": "颊",
  "103849": "簧",
  "103850": "烟花",
  "103851": "侥",
  "103852": "睦",
  "103853": "酝",
  "103854": "氓",
  "103855": "琉",
  "103856": "姊",
  "103857": "沮",
  "103858": "慷",
  "103859": "蜕",
  "103860": "瑚",
  "103861": "采矿",
  "103862": "堰",
  "103863": "底蕴",
  "103864": "膳",
  "103865": "辕",
  "103866": "韭",
  "103867": "咙",
  "103868": "粽",
  "103869": "剔",
  "103870": "沦",
  "103871": "肴",
  "103872": "镶",
  "103873": "昼",
  "103874": "辗",
  "103875": "婪",
  "103876": "匮",
  "103877": "斓",
  "103878": "汶",
  "103879": "郴",
  "103880": "頻",
  "103881": "窒",
  "103882": "袱",
  "103883": "囱",
  "103884": "耘",
  "103885": "蚌",
  "103886": "狙",
  "103887": "痹",
  "103888": "祉",
  "103889": "揮",
  "103890": "淆",
  "103891": "磋",
  "103892": "阪",
  "103920": "的时候",
  "103921": "有限公司",
  "103922": "之后",
  "103923": "业务",
  "103924": "啊",
  "103925": "虽然",
  "103926": "拥有",
  "103927": "互联网",
  "103928": "那些",
  "103929": "你的",
  "103930": "决定",
  "103931": "除了",
  "103932": "团队",
  "103933": "可是",
  "103934": "以后",
  "103935": "社区",
  "103936": "的问题",
  "103937": "并且",
  "103938": "教师",
  "103939": "就会",
  "103940": "天空部落",
  "103941": "最终",
  "103942": "当然",
  "103943": "也有",
  "103944": "确保",
  "103945": "想要",
  "103946": "购买",
  "103947": "人的",
  "103948": "吴",
  "103949": "的发展",
  "103950": "不知道",
  "103951": "软件",
  "103952": "我们的",
  "103953": "父母",
  "103954": "剑",
  "103955": "而是",
  "103956": "安排",
  "103957": "后来",
  "103958": "的地方",
  "103959": "赵",
  "103960": "考试",
  "103961": "突然",
  "103962": "一定要",
  "103963": "制作",
  "103964": "评价",
  "103965": "免费",
  "103966": "费用",
  "103967": "统一",
  "103968": "然而",
  "103969": "这次",
  "103970": "青年",
  "103971": "人类",
  "103972": "亦",
  "103973": "让人",
  "103974": "负责人",
  "103975": "采取",
  "103976": "的事情",
  "103977": "也会",
  "103978": "车辆",
  "103979": "更是",
  "103980": "强化",
  "103981": "我們",
  "103982": "以前",
  "103983": "优化",
  "103984": "委员会",
  "103985": "困难",
  "103986": "年度",
  "103987": "位于",
  "103988": "指出",
  "103989": "再次",
  "103990": "办理",
  "103991": "每个",
  "103992": "对方",
  "103993": "进行了",
  "103994": "最高",
  "103995": "课程",
  "103996": "身上",
  "103997": "曾经",
  "103998": "医生",
  "103999": "安装",
  "104000": "朱",
  "104001": "运行",
  "104002": "双方",
  "104003": "最大的",
  "104004": "构建",
  "104005": "连续",
  "104006": "的小",
  "104007": "她的",
  "104008": "等等",
  "104009": "改善",
  "104010": "各类",
  "104011": "遇到",
  "104012": "有着",
  "104013": "人物",
  "104014": "总是",
  "104015": "迅速",
  "104016": "制定",
  "104017": "它们",
  "104018": "官网",
  "104019": "还要",
  "104020": "终于",
  "104021": "房地产",
  "104022": "证明",
  "104023": "股票",
  "104024": "应当",
  "104025": "英国",
  "104026": "运用",
  "104027": "最新",
  "104028": "享受",
  "104029": "让我",
  "104030": "晚上",
  "104031": "從",
  "104032": "小说",
  "104033": "尤其是",
  "104034": "训练",
  "104035": "全市",
  "104036": "挑战",
  "104037": "有点",
  "104038": "带着",
  "104039": "的东西",
  "104040": "风格",
  "104041": "黄金",
  "104042": "引导",
  "104043": "此外",
  "104044": "最近",
  "104045": "追求",
  "104046": "强调",
  "104047": "也可以",
  "104048": "感到",
  "104049": "自我",
  "104050": "特别是",
  "104051": "成都",
  "104052": "逐渐",
  "104053": "快乐",
  "104054": "之中",
  "104055": "投资者",
  "104056": "他们的",
  "104057": "氏",
  "104058": "工作人员",
  "104059": "了一个",
  "104060": "啦",
  "104061": "一個",
  "104062": "基层",
  "104063": "沟通",
  "104064": "第一次",
  "104065": "并没有",
  "104066": "的工作",
  "104067": "在这里",
  "104068": "枪",
  "104069": "支撑",
  "104070": "时尚",
  "104071": "来到",
  "104072": "收购",
  "104073": "革命",
  "104074": "是不是",
  "104075": "讨论",
  "104076": "业绩",
  "104077": "就能",
  "104078": "立即",
  "104079": "街道",
  "104080": "在一起",
  "104081": "月份",
  "104082": "高端",
  "104083": "很难",
  "104084": "俄罗斯",
  "104085": "手段",
  "104086": "做出",
  "104087": "众多",
  "104088": "实行",
  "104089": "打开",
  "104090": "游客",
  "104091": "依然",
  "104092": "就像",
  "104093": "离开",
  "104094": "说道",
  "104095": "新能源",
  "104096": "溪",
  "104097": "井",
  "104098": "令人",
  "104099": "一场",
  "104100": "我想",
  "104101": "两人",
  "104102": "至少",
  "104103": "的生活",
  "104104": "是个",
  "104105": "英语",
  "104106": "沒有",
  "104107": "思考",
  "104108": "限制",
  "104109": "台湾",
  "104110": "一旦",
  "104111": "的一个",
  "104112": "高级",
  "104113": "办公室",
  "104114": "德国",
  "104115": "我就",
  "104116": "定位",
  "104117": "适应",
  "104118": "指标",
  "104119": "全省",
  "104120": "上述",
  "104121": "它的",
  "104122": "回家",
  "104123": "欧洲",
  "104124": "铁路",
  "104125": "鼓励",
  "104126": "的影响",
  "104127": "高校",
  "104128": "天下",
  "104129": "高质量",
  "104130": "杭州",
  "104131": "资讯",
  "104132": "放在",
  "104133": "有一个",
  "104134": "就要",
  "104135": "上面",
  "104136": "解释",
  "104137": "逐步",
  "104138": "尽管",
  "104139": "有什么",
  "104140": "的事",
  "104141": "登记",
  "104142": "人民币",
  "104143": "观众",
  "104144": "观察",
  "104145": "电脑",
  "104146": "的同时",
  "104147": "作业",
  "104148": "宣布",
  "104149": "的作用",
  "104150": "回来",
  "104151": "难以",
  "104152": "所有的",
  "104153": "小学",
  "104154": "提前",
  "104155": "植物",
  "104156": "凯",
  "104157": "上了",
  "104158": "就在",
  "104159": "先后",
  "104160": "手术",
  "104161": "郭",
  "104162": "面前",
  "104163": "毕竟",
  "104164": "二是",
  "104165": "红色",
  "104166": "阳光",
  "104167": "苹果",
  "104168": "很多人",
  "104169": "给我",
  "104170": "哦",
  "104171": "眼睛",
  "104172": "頭",
  "104173": "一是",
  "104174": "发展的",
  "104175": "反应",
  "104176": "房屋",
  "104177": "期待",
  "104178": "种植",
  "104179": "文学",
  "104180": "即可",
  "104181": "首次",
  "104182": "英雄",
  "104183": "多次",
  "104184": "包装",
  "104185": "河南",
  "104186": "之间的",
  "104187": "仍然",
  "104188": "听到",
  "104189": "董事长",
  "104190": "规则",
  "104191": "一份",
  "104192": "大众",
  "104193": "使得",
  "104194": "进口",
  "104195": "一片",
  "104196": "性的",
  "104197": "的大",
  "104198": "我是",
  "104199": "互动",
  "104200": "氣",
  "104201": "皆",
  "104202": "公司的",
  "104203": "一边",
  "104204": "及其",
  "104205": "良好的",
  "104206": "拓展",
  "104207": "当年",
  "104208": "广场",
  "104209": "做了",
  "104210": "基于",
  "104211": "提醒",
  "104212": "兄弟",
  "104213": "老板",
  "104214": "近日",
  "104215": "状况",
  "104216": "注重",
  "104217": "刚刚",
  "104218": "调研",
  "104219": "心中",
  "104220": "把握",
  "104221": "随后",
  "104222": "不够",
  "104223": "创作",
  "104224": "站在",
  "104225": "相互",
  "104226": "疫情防控",
  "104227": "年代",
  "104228": "带动",
  "104229": "伤害",
  "104230": "竟然",
  "104231": "引进",
  "104232": "累计",
  "104233": "让我们",
  "104234": "回收",
  "104235": "报名",
  "104236": "助力",
  "104237": "联盟",
  "104238": "策略",
  "104239": "周边",
  "104240": "勒",
  "104241": "还在",
  "104242": "流量",
  "104243": "寻找",
  "104244": "电力",
  "104245": "船舶",
  "104246": "还能",
  "104247": "担任",
  "104248": "的情况下",
  "104249": "的原因",
  "104250": "缺乏",
  "104251": "球员",
  "104252": "岁的",
  "104253": "男子",
  "104254": "工资",
  "104255": "近年来",
  "104256": "呀",
  "104257": "提供了",
  "104258": "她们",
  "104259": "家具",
  "104260": "燕",
  "104261": "轻松",
  "104262": "校园",
  "104263": "考核",
  "104264": "危险",
  "104265": "党组织",
  "104266": "总经理",
  "104267": "的新",
  "104268": "玻璃",
  "104269": "这位",
  "104270": "对此",
  "104271": "家人",
  "104272": "的要求",
  "104273": "温度",
  "104274": "指数",
  "104275": "直到",
  "104276": "此时",
  "104277": "湖南",
  "104278": "都要",
  "104279": "作出",
  "104280": "各位",
  "104281": "考生",
  "104282": "依据",
  "104283": "说话",
  "104284": "我也",
  "104285": "工厂",
  "104286": "变成",
  "104287": "他人",
  "104288": "我觉得",
  "104289": "各级",
  "104290": "传奇私服",
  "104291": "上升",
  "104292": "好像",
  "104293": "加速",
  "104294": "二十",
  "104295": "袁",
  "104296": "装饰",
  "104297": "都能",
  "104298": "一张",
  "104299": "动态",
  "104300": "年的",
  "104301": "这就是",
  "104302": "也要",
  "104303": "资格",
  "104304": "战争",
  "104305": "感谢",
  "104306": "培育",
  "104307": "天气",
  "104308": "女士",
  "104309": "可能会",
  "104310": "的产品",
  "104311": "也就",
  "104312": "主要是",
  "104313": "刺激",
  "104314": "给你",
  "104315": "大数据",
  "104316": "医学",
  "104317": "判断",
  "104318": "他说",
  "104319": "表演",
  "104320": "亚洲",
  "104321": "专题",
  "104322": "竞争力",
  "104323": "那样",
  "104324": "展开",
  "104325": "平时",
  "104326": "接下来",
  "104327": "承诺",
  "104328": "法国",
  "104329": "关心",
  "104330": "会有",
  "104331": "邀请",
  "104332": "预防",
  "104333": "对接",
  "104334": "好了",
  "104335": "咱们",
  "104336": "的感觉",
  "104337": "思路",
  "104338": "都没有",
  "104339": "的方法",
  "104340": "女子",
  "104341": "司法",
  "104342": "还会",
  "104343": "越来越多",
  "104344": "因為",
  "104345": "海南",
  "104346": "人数",
  "104347": "将会",
  "104348": "业主",
  "104349": "餐饮",
  "104350": "居住",
  "104351": "发出",
  "104352": "近期",
  "104353": "引领",
  "104354": "机器人",
  "104355": "出来的",
  "104356": "看见",
  "104357": "俊",
  "104358": "让他",
  "104359": "不想",
  "104360": "工作的",
  "104361": "补充",
  "104362": "浅",
  "104363": "特征",
  "104364": "上市公司",
  "104365": "美食",
  "104366": "广西",
  "104367": "每一个",
  "104368": "落地",
  "104369": "品种",
  "104370": "和谐",
  "104371": "彻底",
  "104372": "高考",
  "104373": "昨天",
  "104374": "前往",
  "104375": "监测",
  "104376": "百度",
  "104377": "在中国",
  "104378": "的需求",
  "104379": "亿美元",
  "104380": "学术",
  "104381": "收到",
  "104382": "板块",
  "104383": "一段",
  "104384": "构成",
  "104385": "企业的",
  "104386": "表面",
  "104387": "整理",
  "104388": "结婚",
  "104389": "人家",
  "104390": "停止",
  "104391": "学科",
  "104392": "显得",
  "104393": "休息",
  "104394": "预期",
  "104395": "或是",
  "104396": "的主要",
  "104397": "应对",
  "104398": "走了",
  "104399": "中间",
  "104400": "走进",
  "104401": "呈现",
  "104402": "搭配",
  "104403": "鹏",
  "104404": "是因为",
  "104405": "情绪",
  "104406": "定期",
  "104407": "社会主义",
  "104408": "等级",
  "104409": "矛盾",
  "104410": "飞机",
  "104411": "至今",
  "104412": "收集",
  "104413": "的故事",
  "104414": "切实",
  "104415": "实现了",
  "104416": "形成了",
  "104417": "南方",
  "104418": "中学",
  "104419": "海洋",
  "104420": "否则",
  "104421": "拍摄",
  "104422": "大学生",
  "104423": "出现了",
  "104424": "意外",
  "104425": "也能",
  "104426": "的能力",
  "104427": "坐在",
  "104428": "则是",
  "104429": "考察",
  "104430": "尊重",
  "104431": "防止",
  "104432": "紧张",
  "104433": "读书",
  "104434": "出行",
  "104435": "就有",
  "104436": "履行",
  "104437": "现代化",
  "104438": "国务",
  "104439": "国务院",
  "104440": "维修",
  "104441": "原创",
  "104442": "是指",
  "104443": "休闲",
  "104444": "炮",
  "104445": "新时代",
  "104446": "這個",
  "104447": "不敢",
  "104448": "完美",
  "104449": "细节",
  "104450": "魏",
  "104451": "蔬菜",
  "104452": "领导班子",
  "104453": "超级",
  "104454": "行情",
  "104455": "人工智能",
  "104456": "印度",
  "104457": "基础设施",
  "104458": "又是",
  "104459": "药物",
  "104460": "吸收",
  "104461": "却是",
  "104462": "郎",
  "104463": "奖励",
  "104464": "的朋友",
  "104465": "保留",
  "104466": "规律",
  "104467": "新疆",
  "104468": "还可以",
  "104469": "接近",
  "104470": "此前",
  "104471": "批准",
  "104472": "怎么样",
  "104473": "的位置",
  "104474": "一块",
  "104475": "拒绝",
  "104476": "顾客",
  "104477": "也在",
  "104478": "一生",
  "104479": "部队",
  "104480": "年前",
  "104481": "方面的",
  "104482": "尝试",
  "104483": "真正的",
  "104484": "禁止",
  "104485": "还没有",
  "104486": "民生",
  "104487": "走向",
  "104488": "脸上",
  "104489": "当天",
  "104490": "集团公司",
  "104491": "的一种",
  "104492": "西方",
  "104493": "回应",
  "104494": "一声",
  "104495": "常常",
  "104496": "提到",
  "104497": "腾讯",
  "104498": "服装",
  "104499": "为何",
  "104500": "云南",
  "104501": "就算",
  "104502": "传承",
  "104503": "反而",
  "104504": "万吨",
  "104505": "财产",
  "104506": "如下",
  "104507": "日前",
  "104508": "原本",
  "104509": "最重要的",
  "104510": "认证",
  "104511": "一道",
  "104512": "信息化",
  "104513": "得到了",
  "104514": "進行",
  "104515": "我要",
  "104516": "通信",
  "104517": "室内",
  "104518": "赚钱",
  "104519": "收藏",
  "104520": "解决方案",
  "104521": "房产",
  "104522": "狼",
  "104523": "活力",
  "104524": "经济发展",
  "104525": "等待",
  "104526": "也很",
  "104527": "坑",
  "104528": "很好的",
  "104529": "难度",
  "104530": "不如",
  "104531": "人民政府",
  "104532": "出发",
  "104533": "前期",
  "104534": "演员",
  "104535": "女生",
  "104536": "聚焦",
  "104537": "审计",
  "104538": "预测",
  "104539": "依托",
  "104540": "五年",
  "104541": "补贴",
  "104542": "清晰",
  "104543": "骂",
  "104544": "看起来",
  "104545": "的孩子",
  "104546": "频道",
  "104547": "住宅",
  "104548": "面向",
  "104549": "最低",
  "104550": "既然",
  "104551": "一套",
  "104552": "数学",
  "104553": "群体",
  "104554": "北京市",
  "104555": "居然",
  "104556": "氛围",
  "104557": "途径",
  "104558": "的基础上",
  "104559": "职责",
  "104560": "可能是",
  "104561": "军事",
  "104562": "成效",
  "104563": "孩子们",
  "104564": "计算机",
  "104565": "赤",
  "104566": "产业发展",
  "104567": "巨大的",
  "104568": "工人",
  "104569": "生长",
  "104570": "都可以",
  "104571": "的机会",
  "104572": "资质",
  "104573": "痛苦",
  "104574": "粉丝",
  "104575": "墓",
  "104576": "平安",
  "104577": "管道",
  "104578": "跟着",
  "104579": "饮食",
  "104580": "商家",
  "104581": "多家",
  "104582": "司机",
  "104583": "应该是",
  "104584": "透露",
  "104585": "认定",
  "104586": "行业的",
  "104587": "的企业",
  "104588": "每一",
  "104589": "范围内",
  "104590": "较大",
  "104591": "贤",
  "104592": "大赛",
  "104593": "多了",
  "104594": "鸿",
  "104595": "临床",
  "104596": "在这个",
  "104597": "的内容",
  "104598": "销量",
  "104599": "很少",
  "104600": "孟",
  "104601": "维持",
  "104602": "咖啡",
  "104603": "本地",
  "104604": "色彩",
  "104605": "并非",
  "104606": "而已",
  "104607": "温暖",
  "104608": "萧",
  "104609": "抓住",
  "104610": "而不是",
  "104611": "喊",
  "104612": "的关系",
  "104613": "物品",
  "104614": "那是",
  "104615": "农产品",
  "104616": "这时",
  "104617": "婚姻",
  "104618": "水果",
  "104619": "收获",
  "104620": "付出",
  "104621": "客户端",
  "104622": "演出",
  "104623": "全新",
  "104624": "这也是",
  "104625": "是由",
  "104626": "观念",
  "104627": "有个",
  "104628": "造型",
  "104629": "胜利",
  "104630": "三是",
  "104631": "超市",
  "104632": "党建工作",
  "104633": "放心",
  "104634": "线路",
  "104635": "招生",
  "104636": "吃饭",
  "104637": "轉",
  "104638": "尽量",
  "104639": "见到",
  "104640": "同比增长",
  "104641": "华为",
  "104642": "我市",
  "104643": "提出了",
  "104644": "民警",
  "104645": "博物",
  "104646": "博物馆",
  "104647": "诚信",
  "104648": "前面",
  "104649": "山西",
  "104650": "辅助",
  "104651": "转移",
  "104652": "更为",
  "104653": "丰富的",
  "104654": "卢",
  "104655": "快递",
  "104656": "显著",
  "104657": "物资",
  "104658": "到达",
  "104659": "有利于",
  "104660": "呆",
  "104661": "孩子的",
  "104662": "不但",
  "104663": "研究院",
  "104664": "申报",
  "104665": "暨",
  "104666": "民间",
  "104667": "卻",
  "104668": "的声音",
  "104669": "市场的",
  "104670": "一句",
  "104671": "省级",
  "104672": "来的",
  "104673": "哪个",
  "104674": "才会",
  "104675": "分配",
  "104676": "蔡",
  "104677": "他在",
  "104678": "共有",
  "104679": "塘",
  "104680": "蒂",
  "104681": "霍",
  "104682": "参观",
  "104683": "丈夫",
  "104684": "依靠",
  "104685": "有时",
  "104686": "了很多",
  "104687": "世界杯",
  "104688": "家族",
  "104689": "不需要",
  "104690": "大师",
  "104691": "融入",
  "104692": "非法",
  "104693": "病人",
  "104694": "后期",
  "104695": "大家都",
  "104696": "网址",
  "104697": "原料",
  "104698": "便宜",
  "104699": "涛",
  "104700": "仿佛",
  "104701": "差距",
  "104702": "另一方面",
  "104703": "产品的",
  "104704": "赫",
  "104705": "情况下",
  "104706": "钢铁",
  "104707": "本站",
  "104708": "纳入",
  "104709": "已有",
  "104710": "有没有",
  "104711": "估计",
  "104712": "飘",
  "104713": "期货",
  "104714": "個人資料",
  "104715": "专业的",
  "104716": "爆发",
  "104717": "致力于",
  "104718": "现在的",
  "104719": "有哪些",
  "104720": "破坏",
  "104721": "数字化",
  "104722": "地面",
  "104723": "黑色",
  "104724": "幼儿园",
  "104725": "的精神",
  "104726": "亭",
  "104727": "导演",
  "104728": "现有",
  "104729": "武器",
  "104730": "苏州",
  "104731": "玄",
  "104732": "江西",
  "104733": "延伸",
  "104734": "论文",
  "104735": "较为",
  "104736": "玩法",
  "104737": "鼎",
  "104738": "同步",
  "104739": "释放",
  "104740": "曝光",
  "104741": "坚决",
  "104742": "委托",
  "104743": "将在",
  "104744": "予以",
  "104745": "作文",
  "104746": "而在",
  "104747": "优先",
  "104748": "回去",
  "104749": "修复",
  "104750": "国内外",
  "104751": "策划",
  "104752": "发放",
  "104753": "心情",
  "104754": "的历史",
  "104755": "面试",
  "104756": "东北",
  "104757": "信号",
  "104758": "粮食",
  "104759": "证书",
  "104760": "某些",
  "104761": "运作",
  "104762": "冲击",
  "104763": "热点",
  "104764": "时时",
  "104765": "时时彩",
  "104766": "地点",
  "104767": "一体化",
  "104768": "难题",
  "104769": "曰",
  "104770": "立刻",
  "104771": "是非常",
  "104772": "共和",
  "104773": "共和国",
  "104774": "激励",
  "104775": "有效的",
  "104776": "处置",
  "104777": "该公司",
  "104778": "检验",
  "104779": "警方",
  "104780": "贾",
  "104781": "了一下",
  "104782": "今后",
  "104783": "煮",
  "104784": "用品",
  "104785": "读者",
  "104786": "我在",
  "104787": "回复",
  "104788": "一座",
  "104789": "还没",
  "104790": "定制",
  "104791": "没想到",
  "104792": "夹",
  "104793": "传递",
  "104794": "一款",
  "104795": "强大的",
  "104796": "的行为",
  "104797": "夏天",
  "104798": "发动机",
  "104799": "领域的",
  "104800": "实验室",
  "104801": "一把",
  "104802": "是为了",
  "104803": "陕西",
  "104804": "担保",
  "104805": "达成",
  "104806": "要是",
  "104807": "明天",
  "104808": "给他",
  "104809": "建立了",
  "104810": "不行",
  "104811": "中文",
  "104812": "地说",
  "104813": "后的",
  "104814": "监控",
  "104815": "逸",
  "104816": "总部",
  "104817": "本文",
  "104818": "鹿",
  "104819": "景观",
  "104820": "的目标",
  "104821": "蛇",
  "104822": "冯",
  "104823": "中医",
  "104824": "效应",
  "104825": "产量",
  "104826": "孝",
  "104827": "账户",
  "104828": "违反",
  "104829": "董事会",
  "104830": "京东",
  "104831": "责任编辑",
  "104832": "問題",
  "104833": "爱心",
  "104834": "警察",
  "104835": "餐厅",
  "104836": "市政府",
  "104837": "天天",
  "104838": "新鲜",
  "104839": "郑州",
  "104840": "超越",
  "104841": "彭",
  "104842": "知识产权",
  "104843": "回忆",
  "104844": "路线",
  "104845": "廉洁",
  "104846": "青少年",
  "104847": "取得了",
  "104848": "看到了",
  "104849": "馬",
  "104850": "精品",
  "104851": "地铁",
  "104852": "持有",
  "104853": "下了",
  "104854": "有时候",
  "104855": "一人",
  "104856": "撒",
  "104857": "仔细",
  "104858": "老公",
  "104859": "事实上",
  "104860": "联赛",
  "104861": "供应链",
  "104862": "预算",
  "104863": "制造业",
  "104864": "安全生产",
  "104865": "俱乐",
  "104866": "俱乐部",
  "104867": "的核心",
  "104868": "打算",
  "104869": "影片",
  "104870": "搭建",
  "104871": "也不会",
  "104872": "担当",
  "104873": "层面",
  "104874": "学员",
  "104875": "临时",
  "104876": "相结合",
  "104877": "对比",
  "104878": "他是",
  "104879": "新区",
  "104880": "进去",
  "104881": "百年",
  "104882": "俩",
  "104883": "尽快",
  "104884": "电子商务",
  "104885": "更有",
  "104886": "清理",
  "104887": "另一个",
  "104888": "傻",
  "104889": "什么样的",
  "104890": "是最",
  "104891": "周年",
  "104892": "很容易",
  "104893": "团结",
  "104894": "約",
  "104895": "早已",
  "104896": "的变化",
  "104897": "霞",
  "104898": "日上午",
  "104899": "失去",
  "104900": "中國",
  "104901": "的一些",
  "104902": "小孩",
  "104903": "下跌",
  "104904": "锻炼",
  "104906": "鑫",
  "104907": "志愿者",
  "104908": "股市",
  "104909": "赛事",
  "104910": "许可证",
  "104911": "可持续",
  "104912": "告诉记者",
  "104913": "逻辑",
  "104914": "引入",
  "104915": "的过程中",
  "104916": "视觉",
  "104917": "自治区",
  "104918": "证据",
  "104919": "装置",
  "104920": "第三方",
  "104921": "年来",
  "104922": "广东省",
  "104923": "带来了",
  "104924": "长江",
  "104925": "访问",
  "104926": "差不多",
  "104927": "是我",
  "104928": "遭遇",
  "104929": "抓好",
  "104930": "高达",
  "104931": "并在",
  "104932": "自觉",
  "104933": "供应商",
  "104934": "情感",
  "104935": "住了",
  "104936": "的职业",
  "104937": "皇帝",
  "104938": "西部",
  "104939": "和平",
  "104940": "的力量",
  "104941": "汪",
  "104942": "充分发挥",
  "104943": "投诉",
  "104944": "起到",
  "104945": "互相",
  "104946": "澳门",
  "104947": "接到",
  "104948": "水泥",
  "104949": "模型",
  "104950": "一半",
  "104951": "秩序",
  "104952": "我们在",
  "104953": "承认",
  "104954": "一部分",
  "104955": "占比",
  "104956": "妇女",
  "104957": "粘",
  "104958": "了解到",
  "104959": "一定会",
  "104960": "各大",
  "104961": "走出",
  "104962": "为大家",
  "104963": "高铁",
  "104964": "可以在",
  "104965": "但在",
  "104966": "生态环境",
  "104967": "華",
  "104968": "的价格",
  "104969": "麻烦",
  "104970": "激发",
  "104971": "那就",
  "104972": "的样子",
  "104973": "为此",
  "104974": "天地",
  "104975": "的目的",
  "104976": "债券",
  "104977": "已經",
  "104978": "四大",
  "104979": "同时也",
  "104980": "彼此",
  "104981": "拿到",
  "104982": "含量",
  "104983": "十大",
  "104984": "难道",
  "104985": "弗",
  "104986": "一段时间",
  "104987": "照顾",
  "104988": "数据显示",
  "104989": "成为了",
  "104990": "走到",
  "104991": "本公司",
  "104992": "终端",
  "104993": "也不是",
  "104994": "头发",
  "104995": "大约",
  "104996": "风景",
  "104997": "消耗",
  "104998": "审查",
  "104999": "争取",
  "105000": "法治",
  "105001": "事物",
  "105002": "缓解",
  "105003": "惨",
  "105004": "相应的",
  "105005": "的效果",
  "105006": "反复",
  "105007": "发生了",
  "105008": "這些",
  "105009": "练习",
  "105010": "厨房",
  "105011": "开拓",
  "105012": "欣赏",
  "105013": "夫妻",
  "105014": "不一样",
  "105015": "产能",
  "105016": "芯片",
  "105017": "要素",
  "105018": "反对",
  "105019": "率先",
  "105020": "货物",
  "105021": "日电",
  "105022": "作家",
  "105023": "改进",
  "105024": "成分",
  "105025": "因而",
  "105026": "减肥",
  "105027": "潘",
  "105028": "山东省",
  "105029": "劝",
  "105030": "埋",
  "105031": "武装",
  "105032": "汇报",
  "105033": "一个月",
  "105034": "热门",
  "105035": "大道",
  "105036": "活動",
  "105037": "都很",
  "105038": "电梯",
  "105039": "紧急",
  "105040": "债务",
  "105041": "客服",
  "105042": "一部",
  "105043": "你是",
  "105044": "现状",
  "105045": "正确的",
  "105046": "之处",
  "105047": "编制",
  "105048": "你可以",
  "105049": "等地",
  "105050": "莉",
  "105051": "对话",
  "105052": "淘宝",
  "105053": "调节",
  "105054": "排放",
  "105055": "库存",
  "105056": "級",
  "105057": "的优势",
  "105058": "权威",
  "105059": "以下简称",
  "105060": "一项",
  "105061": "聚集",
  "105062": "传统的",
  "105063": "混合",
  "105064": "这一点",
  "105065": "一眼",
  "105066": "无限",
  "105067": "获得了",
  "105068": "选手",
  "105069": "制品",
  "105070": "协作",
  "105071": "独特的",
  "105072": "一级",
  "105073": "这个问题",
  "105074": "斌",
  "105075": "是我们",
  "105076": "敌人",
  "105077": "清洗",
  "105078": "一直在",
  "105079": "小米",
  "105080": "的过程",
  "105081": "在北京",
  "105082": "一支",
  "105083": "早上",
  "105084": "文艺",
  "105085": "福利",
  "105086": "食用",
  "105087": "感动",
  "105088": "全程",
  "105089": "支出",
  "105090": "新建",
  "105091": "帕",
  "105092": "显然",
  "105093": "真的是",
  "105094": "新闻网",
  "105095": "能否",
  "105096": "协助",
  "105097": "亲自",
  "105098": "很有",
  "105099": "發展",
  "105100": "意大",
  "105101": "意大利",
  "105102": "电网",
  "105103": "日益",
  "105104": "熱",
  "105105": "肌肤",
  "105106": "男性",
  "105107": "组建",
  "105108": "等问题",
  "105109": "消除",
  "105110": "护理",
  "105111": "塑料",
  "105112": "乌克",
  "105113": "乌克兰",
  "105114": "商标",
  "105115": "琳",
  "105116": "新手",
  "105117": "的特点",
  "105118": "咬",
  "105119": "当下",
  "105120": "设计师",
  "105121": "赔偿",
  "105122": "第十",
  "105123": "智能化",
  "105124": "开发区",
  "105125": "可以通过",
  "105126": "共产党",
  "105127": "厉害",
  "105128": "灵活",
  "105129": "时光",
  "105130": "部位",
  "105131": "人文",
  "105132": "进来",
  "105133": "之所以",
  "105134": "三十",
  "105135": "的学生",
  "105136": "防护",
  "105137": "国产",
  "105138": "深圳市",
  "105139": "那就是",
  "105140": "到位",
  "105141": "特朗",
  "105142": "特朗普",
  "105143": "实时",
  "105144": "台灣",
  "105145": "而不",
  "105146": "指定",
  "105147": "坝",
  "105148": "腐败",
  "105149": "特定",
  "105150": "增速",
  "105151": "标签",
  "105152": "房价",
  "105153": "愁",
  "105154": "贯彻落实",
  "105155": "性质",
  "105156": "研究生",
  "105157": "美容",
  "105158": "批评",
  "105159": "究竟",
  "105160": "人力资源",
  "105161": "開始",
  "105162": "回归",
  "105163": "营商",
  "105164": "营商环境",
  "105165": "中国人",
  "105166": "的基本",
  "105167": "话题",
  "105168": "标准化",
  "105169": "西藏",
  "105170": "勾",
  "105171": "的设计",
  "105172": "简单的",
  "105173": "复制",
  "105174": "渐渐",
  "105175": "以外",
  "105176": "联动",
  "105177": "两次",
  "105178": "性和",
  "105179": "更大",
  "105180": "的名字",
  "105181": "韦",
  "105182": "你要",
  "105183": "境外",
  "105184": "早期",
  "105185": "初步",
  "105186": "账号",
  "105187": "害怕",
  "105188": "昨日",
  "105189": "刚才",
  "105190": "神秘",
  "105191": "精心",
  "105192": "流通",
  "105193": "全方位",
  "105194": "以往",
  "105195": "也将",
  "105196": "是中国",
  "105197": "国家级",
  "105198": "将军",
  "105199": "摊",
  "105200": "最为",
  "105201": "第一时间",
  "105202": "消毒",
  "105203": "将于",
  "105204": "威胁",
  "105205": "英文",
  "105206": "手中",
  "105207": "球迷",
  "105208": "观看",
  "105209": "离婚",
  "105210": "本土",
  "105211": "分散",
  "105212": "晴",
  "105213": "要注意",
  "105214": "浪费",
  "105215": "管控",
  "105216": "出售",
  "105217": "总裁",
  "105218": "一阵",
  "105219": "娇",
  "105220": "五个",
  "105221": "当初",
  "105222": "纠纷",
  "105223": "专用",
  "105224": "备案",
  "105225": "初期",
  "105226": "它是",
  "105227": "区块",
  "105228": "区块链",
  "105229": "大连",
  "105230": "这类",
  "105231": "变成了",
  "105232": "還是",
  "105233": "博客",
  "105234": "現在",
  "105235": "一方",
  "105236": "完成了",
  "105237": "这个时候",
  "105238": "全年",
  "105239": "上线",
  "105240": "罐",
  "105241": "竞赛",
  "105242": "出版社",
  "105243": "哥哥",
  "105244": "寫",
  "105245": "得以",
  "105246": "花园",
  "105247": "了起来",
  "105248": "脱贫攻坚",
  "105249": "的原则",
  "105250": "讲解",
  "105251": "消化",
  "105252": "损害",
  "105253": "暂时",
  "105254": "得知",
  "105255": "适用",
  "105256": "门店",
  "105257": "解读",
  "105258": "普及",
  "105259": "人民法院",
  "105260": "副主任",
  "105261": "心灵",
  "105262": "诊断",
  "105263": "美女",
  "105264": "柯",
  "105265": "年以来",
  "105266": "活跃",
  "105267": "借助",
  "105268": "共建",
  "105269": "诉讼",
  "105270": "放松",
  "105271": "窗口",
  "105272": "企業",
  "105273": "加拿",
  "105274": "加拿大",
  "105275": "买了",
  "105276": "主流",
  "105277": "懂得",
  "105278": "将其",
  "105279": "透明",
  "105280": "工作中",
  "105281": "股价",
  "105282": "档案",
  "105283": "没有任何",
  "105284": "告知",
  "105285": "年初",
  "105286": "日下午",
  "105287": "厂商",
  "105288": "节奏",
  "105289": "主导",
  "105290": "裝",
  "105291": "关键词",
  "105292": "聊天",
  "105293": "写作",
  "105294": "改革开放",
  "105295": "有望",
  "105296": "通报",
  "105297": "萌",
  "105298": "总额",
  "105299": "短期",
  "105300": "一番",
  "105301": "生活的",
  "105302": "化的",
  "105303": "春天",
  "105304": "这场",
  "105305": "新开传奇",
  "105306": "是要",
  "105307": "尚未",
  "105308": "变更",
  "105309": "一周",
  "105310": "客观",
  "105311": "日至",
  "105312": "鹰",
  "105313": "玲",
  "105314": "将来",
  "105315": "客人",
  "105316": "变革",
  "105317": "说了",
  "105318": "原理",
  "105319": "职务",
  "105320": "又有",
  "105321": "一句话",
  "105322": "感受到",
  "105323": "笔者",
  "105324": "移民",
  "105325": "西南",
  "105326": "乃至",
  "105327": "正规",
  "105328": "初中",
  "105329": "犬",
  "105330": "当事",
  "105331": "当事人",
  "105332": "我们要",
  "105333": "入口",
  "105334": "那时",
  "105335": "有限责任",
  "105336": "少女",
  "105337": "这么多",
  "105338": "分公司",
  "105339": "宇宙",
  "105340": "的选择",
  "105341": "姐姐",
  "105342": "发起",
  "105343": "軍",
  "105344": "更好地",
  "105345": "陆续",
  "105346": "本服務",
  "105347": "嫩",
  "105348": "赶紧",
  "105349": "脂肪",
  "105350": "第二天",
  "105351": "我会",
  "105352": "两位",
  "105353": "敲",
  "105354": "公安机关",
  "105355": "科技创新",
  "105356": "尺寸",
  "105357": "辐射",
  "105358": "宗教",
  "105359": "转换",
  "105360": "出现在",
  "105361": "一颗",
  "105362": "期限",
  "105363": "同学们",
  "105364": "北方",
  "105365": "你就",
  "105366": "一带一路",
  "105367": "老婆",
  "105368": "游戏玩家",
  "105369": "的结果",
  "105370": "补偿",
  "105371": "外贸",
  "105372": "对待",
  "105373": "维生素",
  "105374": "经销商",
  "105375": "还将",
  "105376": "子女",
  "105377": "更高",
  "105378": "不大",
  "105379": "鉴定",
  "105380": "让他们",
  "105381": "所谓的",
  "105382": "死了",
  "105383": "帮扶",
  "105384": "哲学",
  "105385": "以上的",
  "105386": "的关键",
  "105387": "早就",
  "105388": "报价",
  "105389": "遵守",
  "105390": "扩张",
  "105391": "是很",
  "105392": "开通",
  "105393": "新加",
  "105394": "新加坡",
  "105395": "翻译",
  "105396": "询问",
  "105397": "鸭",
  "105398": "体内",
  "105399": "两个人",
  "105400": "爹",
  "105401": "霜",
  "105402": "乡村振兴",
  "105403": "睡觉",
  "105404": "官员",
  "105405": "创始",
  "105406": "创始人",
  "105407": "众人",
  "105408": "即便",
  "105409": "疫苗",
  "105410": "企业家",
  "105411": "渣",
  "105412": "精力",
  "105413": "外部",
  "105414": "聪明",
  "105415": "这也",
  "105416": "录取",
  "105417": "冲突",
  "105418": "全身",
  "105419": "季节",
  "105420": "忽然",
  "105421": "的态度",
  "105422": "储备",
  "105423": "保养",
  "105424": "的想法",
  "105425": "上海市",
  "105426": "携手",
  "105427": "的信息",
  "105428": "商场",
  "105429": "的思想",
  "105430": "权力",
  "105431": "毫无",
  "105432": "怀孕",
  "105433": "硬件",
  "105434": "内蒙古",
  "105435": "探讨",
  "105436": "养生",
  "105437": "的表现",
  "105438": "空中",
  "105439": "恐怖",
  "105440": "很高",
  "105441": "经济社会",
  "105442": "上来",
  "105443": "延续",
  "105444": "重复",
  "105445": "防范",
  "105446": "的形式",
  "105447": "月底",
  "105448": "老年人",
  "105449": "绿化",
  "105450": "山区",
  "105451": "拿出",
  "105452": "旅客",
  "105453": "更换",
  "105454": "公主",
  "105455": "节约",
  "105456": "全县",
  "105457": "回报",
  "105458": "理性",
  "105459": "疯狂",
  "105460": "涉嫌",
  "105461": "剧情",
  "105462": "冬季",
  "105463": "后续",
  "105464": "这是一个",
  "105465": "演讲",
  "105466": "一层",
  "105467": "有关部门",
  "105468": "无奈",
  "105469": "种类",
  "105470": "相关的",
  "105471": "或者是",
  "105472": "扶持",
  "105473": "多数",
  "105474": "的作品",
  "105475": "下一步",
  "105476": "师傅",
  "105477": "高速公路",
  "105478": "好友",
  "105479": "优秀的",
  "105480": "进了",
  "105481": "恐怕",
  "105482": "了吧",
  "105483": "大规模",
  "105484": "的世界",
  "105485": "怀疑",
  "105486": "巷",
  "105487": "兴奋",
  "105488": "戰",
  "105489": "村里",
  "105490": "朋友圈",
  "105491": "冬天",
  "105492": "中华人民",
  "105493": "协商",
  "105494": "评选",
  "105495": "旭",
  "105496": "增加了",
  "105497": "受伤",
  "105498": "一股",
  "105499": "便捷",
  "105500": "丑",
  "105501": "鹤",
  "105502": "外观",
  "105503": "工程师",
  "105504": "和其他",
  "105505": "这就",
  "105506": "中小企业",
  "105507": "西北",
  "105508": "国有企业",
  "105509": "若是",
  "105510": "可惜",
  "105511": "生日",
  "105512": "函",
  "105513": "买卖",
  "105514": "祝福",
  "105515": "人民群众",
  "105516": "光明",
  "105517": "公寓",
  "105518": "是谁",
  "105519": "我知道",
  "105520": "语文",
  "105521": "敏感",
  "105522": "不错的",
  "105523": "来讲",
  "105524": "波动",
  "105525": "的第一",
  "105526": "地震",
  "105527": "在全国",
  "105528": "骨干",
  "105529": "安置",
  "105530": "家电",
  "105531": "与此",
  "105532": "与此同时",
  "105533": "受灾",
  "105534": "热线",
  "105535": "的技术",
  "105536": "测量",
  "105537": "依赖",
  "105538": "中国的",
  "105539": "特性",
  "105540": "较高",
  "105541": "踩",
  "105542": "会在",
  "105543": "建造",
  "105544": "导航",
  "105545": "想起",
  "105546": "全世界",
  "105547": "建材",
  "105548": "節",
  "105549": "的基础",
  "105550": "自动化",
  "105551": "前后",
  "105552": "睡眠",
  "105553": "推行",
  "105554": "据了解",
  "105555": "什么时候",
  "105556": "不喜欢",
  "105557": "煤炭",
  "105558": "那么多",
  "105559": "市场化",
  "105560": "不管是",
  "105561": "立场",
  "105562": "都没",
  "105563": "课题",
  "105564": "我们将",
  "105565": "过的",
  "105566": "再加上",
  "105567": "爾",
  "105568": "身材",
  "105569": "男女",
  "105570": "远远",
  "105571": "男生",
  "105572": "自身的",
  "105573": "负担",
  "105574": "百万",
  "105575": "西班",
  "105576": "西班牙",
  "105577": "净利润",
  "105578": "澳大",
  "105579": "澳大利亚",
  "105580": "不去",
  "105581": "承受",
  "105582": "楼盘",
  "105583": "境内",
  "105584": "混凝",
  "105585": "混凝土",
  "105586": "思想政治",
  "105587": "市区",
  "105588": "招标",
  "105589": "团体",
  "105590": "进度",
  "105591": "军队",
  "105592": "反弹",
  "105593": "了一些",
  "105594": "接待",
  "105595": "的学习",
  "105596": "配送",
  "105597": "食品安全",
  "105598": "替代",
  "105599": "是以",
  "105600": "通用",
  "105601": "研究所",
  "105602": "禅",
  "105603": "扔",
  "105604": "隔离",
  "105605": "万平方米",
  "105606": "的规定",
  "105607": "给我们",
  "105608": "激光",
  "105609": "会出现",
  "105610": "短信",
  "105611": "穿着",
  "105612": "沈阳",
  "105613": "教材",
  "105614": "防疫",
  "105615": "优良",
  "105616": "约定",
  "105617": "我省",
  "105618": "公民",
  "105619": "選�",
  "105620": "選擇",
  "105621": "已成为",
  "105622": "不必",
  "105623": "祖国",
  "105624": "并未",
  "105625": "土壤",
  "105626": "微笑",
  "105627": "事业单位",
  "105628": "的游戏",
  "105629": "公示",
  "105630": "合理的",
  "105631": "窝",
  "105632": "气象",
  "105633": "家中",
  "105634": "亮相",
  "105635": "卫星",
  "105636": "记载",
  "105637": "视野",
  "105638": "地区的",
  "105639": "但他",
  "105640": "肌肉",
  "105641": "亏损",
  "105642": "办学",
  "105643": "一行",
  "105644": "诞生",
  "105645": "发布的",
  "105646": "的服务",
  "105647": "的研究",
  "105648": "周末",
  "105649": "产业园",
  "105650": "高温",
  "105651": "成功的",
  "105652": "步骤",
  "105653": "存储",
  "105654": "子公司",
  "105655": "让她",
  "105656": "中有",
  "105657": "嘉宾",
  "105658": "妮",
  "105659": "明年",
  "105660": "了吗",
  "105661": "争议",
  "105662": "戈",
  "105663": "一本",
  "105664": "美丽的",
  "105665": "你说",
  "105666": "大人",
  "105667": "攻略",
  "105668": "不會",
  "105669": "待遇",
  "105670": "一辆",
  "105671": "版权所有",
  "105672": "民众",
  "105673": "功夫",
  "105674": "展会",
  "105675": "大脑",
  "105676": "每月",
  "105677": "小麦",
  "105678": "浙江省",
  "105679": "的所有",
  "105680": "下滑",
  "105681": "蓝色",
  "105682": "要想",
  "105683": "学生的",
  "105684": "当你",
  "105685": "作战",
  "105686": "家乡",
  "105687": "多名",
  "105688": "高于",
  "105689": "坚强",
  "105690": "连锁",
  "105691": "后果",
  "105692": "人事",
  "105693": "紅",
  "105694": "激动",
  "105695": "进攻",
  "105696": "穆",
  "105697": "丘",
  "105698": "让自己",
  "105699": "以此",
  "105700": "夫人",
  "105701": "开设",
  "105702": "气质",
  "105703": "鸡蛋",
  "105704": "無法",
  "105705": "吃了",
  "105706": "分别为",
  "105707": "联合国",
  "105708": "当代",
  "105709": "如果是",
  "105710": "远程",
  "105711": "喂",
  "105712": "记住",
  "105713": "清单",
  "105714": "合作伙伴",
  "105715": "去做",
  "105716": "故障",
  "105717": "模拟",
  "105718": "师生",
  "105719": "前来",
  "105720": "电视剧",
  "105721": "热爱",
  "105722": "露出",
  "105723": "高层",
  "105724": "电器",
  "105725": "纪律",
  "105726": "开发商",
  "105727": "长安",
  "105728": "载体",
  "105729": "的就是",
  "105730": "被人",
  "105731": "受理",
  "105732": "篮球",
  "105733": "莎",
  "105734": "交给",
  "105735": "未来的",
  "105736": "两大",
  "105737": "吕布",
  "105738": "等人",
  "105739": "的日子",
  "105740": "合作社",
  "105741": "挑选",
  "105742": "存款",
  "105743": "系统的",
  "105744": "把它",
  "105745": "没有什么",
  "105746": "从此",
  "105747": "中午",
  "105748": "疼痛",
  "105749": "巩固",
  "105750": "浪漫",
  "105751": "相关部门",
  "105752": "长城",
  "105753": "纤维",
  "105754": "上门",
  "105755": "爆炸",
  "105756": "起点",
  "105757": "的通知",
  "105758": "而来",
  "105759": "的老",
  "105760": "手里",
  "105761": "语音",
  "105762": "辛苦",
  "105763": "江苏省",
  "105764": "用了",
  "105765": "身份证",
  "105766": "有助",
  "105767": "有助于",
  "105768": "物联网",
  "105769": "出门",
  "105770": "弟子",
  "105771": "惹",
  "105772": "这件事",
  "105773": "我们可以",
  "105774": "的生命",
  "105775": "有一种",
  "105776": "店铺",
  "105777": "双手",
  "105778": "的消息",
  "105779": "耐心",
  "105780": "尴尬",
  "105781": "那天",
  "105782": "首批",
  "105783": "是一家",
  "105784": "人气",
  "105785": "反正",
  "105786": "我和",
  "105787": "宠物",
  "105788": "不对",
  "105789": "寻求",
  "105790": "相似",
  "105791": "在美国",
  "105792": "叫做",
  "105793": "嗎",
  "105794": "立足",
  "105795": "用途",
  "105796": "兆",
  "105797": "大气",
  "105798": "向上",
  "105799": "他就",
  "105800": "项目建设",
  "105801": "若干",
  "105802": "是有",
  "105803": "激情",
  "105804": "的意义",
  "105805": "昭",
  "105806": "严重的",
  "105807": "密集",
  "105808": "舞蹈",
  "105809": "荣获",
  "105810": "获悉",
  "105811": "江南",
  "105812": "假如",
  "105813": "户外",
  "105814": "线索",
  "105815": "私人",
  "105816": "转型升级",
  "105817": "的价值",
  "105818": "单独",
  "105819": "老百姓",
  "105820": "對於",
  "105821": "国际化",
  "105822": "估值",
  "105823": "服务业",
  "105824": "臭",
  "105825": "掉了",
  "105826": "解决了",
  "105827": "也不能",
  "105828": "兹",
  "105829": "斯特",
  "105830": "故意",
  "105831": "过度",
  "105832": "节日",
  "105833": "白癜",
  "105834": "白癜风",
  "105835": "继承",
  "105836": "了不少",
  "105837": "二人",
  "105838": "见面",
  "105839": "想想",
  "105840": "复合",
  "105841": "康复",
  "105842": "县城",
  "105843": "在国内",
  "105844": "场地",
  "105845": "陶瓷",
  "105846": "这项",
  "105847": "眼中",
  "105848": "砸",
  "105849": "感觉到",
  "105850": "果然",
  "105851": "放入",
  "105852": "约束",
  "105853": "排查",
  "105854": "车主",
  "105855": "的意思",
  "105856": "新城",
  "105857": "想着",
  "105858": "遂",
  "105859": "茶叶",
  "105860": "买房",
  "105861": "农户",
  "105862": "高手",
  "105863": "玉米",
  "105864": "新冠肺炎",
  "105865": "照明",
  "105866": "指南",
  "105867": "踢",
  "105868": "救援",
  "105869": "景点",
  "105870": "税收",
  "105871": "的手",
  "105872": "正好",
  "105873": "要把",
  "105874": "随意",
  "105875": "其实是",
  "105876": "给自己",
  "105877": "谈判",
  "105878": "每天都",
  "105879": "态势",
  "105880": "预约",
  "105881": "历史上",
  "105882": "宝贝",
  "105883": "前进",
  "105884": "也就是说",
  "105885": "的意见",
  "105886": "口罩",
  "105887": "厘米",
  "105888": "花费",
  "105889": "体育投注",
  "105890": "公众号",
  "105891": "著名的",
  "105892": "开户",
  "105893": "拍卖",
  "105894": "岁月",
  "105895": "内涵",
  "105896": "完整的",
  "105897": "高压",
  "105898": "公务员",
  "105899": "使用的",
  "105900": "生产线",
  "105901": "妹妹",
  "105902": "走访",
  "105903": "是可以",
  "105904": "在家",
  "105905": "暴力",
  "105906": "泰国",
  "105907": "质疑",
  "105908": "不過",
  "105909": "天然气",
  "105910": "缺点",
  "105911": "小型",
  "105912": "不仅是",
  "105913": "黑暗",
  "105914": "梨",
  "105915": "文旅",
  "105916": "要有",
  "105917": "中山",
  "105918": "的数据",
  "105919": "得很",
  "105920": "以便",
  "105921": "对他",
  "105922": "加以",
  "105923": "發現",
  "105924": "设定",
  "105925": "肚子",
  "105926": "靖",
  "105927": "奉献",
  "105928": "不变",
  "105929": "口碑",
  "105930": "在哪里",
  "105931": "佐",
  "105932": "这两个",
  "105933": "的方向",
  "105934": "枫",
  "105935": "二次",
  "105936": "片区",
  "105937": "預",
  "105938": "磊",
  "105939": "拿着",
  "105940": "已经成为",
  "105941": "之上",
  "105942": "宗旨",
  "105943": "奶奶",
  "105944": "高新区",
  "105945": "社會",
  "105946": "跟踪",
  "105947": "服务中心",
  "105948": "扯",
  "105949": "手指",
  "105950": "礼物",
  "105951": "宿舍",
  "105952": "用心",
  "105953": "提高了",
  "105954": "亮点",
  "105955": "不愿意",
  "105956": "播放",
  "105957": "多少钱",
  "105958": "没什么",
  "105959": "数十",
  "105960": "总监",
  "105961": "的城市",
  "105962": "找到了",
  "105963": "内地",
  "105964": "到现在",
  "105965": "战斗力",
  "105966": "原始",
  "105967": "僧",
  "105968": "倒是",
  "105969": "最具",
  "105970": "贫困户",
  "105971": "送到",
  "105972": "级别",
  "105973": "出资",
  "105974": "截止",
  "105975": "种子",
  "105976": "能不能",
  "105977": "幸运",
  "105978": "薇",
  "105979": "项链",
  "105980": "挂牌",
  "105981": "一樣",
  "105982": "乘客",
  "105983": "落后",
  "105984": "但我",
  "105985": "早在",
  "105986": "动漫",
  "105987": "平等",
  "105988": "对你",
  "105989": "不怕",
  "105990": "外界",
  "105991": "多年来",
  "105992": "首个",
  "105993": "河南省",
  "105994": "或其他",
  "105995": "镜头",
  "105996": "南昌",
  "105997": "一面",
  "105998": "造成的",
  "105999": "崔",
  "106000": "筒",
  "106001": "教育部",
  "106002": "地域",
  "106003": "昆明",
  "106004": "巴黎",
  "106005": "手游",
  "106006": "一时",
  "106007": "砍",
  "106008": "顶级",
  "106009": "共计",
  "106010": "原油",
  "106011": "辉煌",
  "106012": "说是",
  "106013": "新华社",
  "106014": "经历了",
  "106015": "不止",
  "106016": "要么",
  "106017": "者的",
  "106018": "总投资",
  "106019": "行驶",
  "106020": "上帝",
  "106021": "年纪",
  "106022": "琼",
  "106023": "传说",
  "106024": "精英",
  "106025": "方针",
  "106026": "江湖",
  "106027": "成為",
  "106028": "总量",
  "106029": "投放",
  "106030": "动画",
  "106031": "藤",
  "106032": "电源",
  "106033": "钙",
  "106034": "同行",
  "106035": "普通的",
  "106036": "图书馆",
  "106037": "诈骗",
  "106038": "慈善",
  "106039": "这份",
  "106040": "主持人",
  "106041": "就这样",
  "106042": "而成",
  "106043": "自行车",
  "106044": "中国特色",
  "106045": "肿瘤",
  "106046": "吾",
  "106047": "弟弟",
  "106048": "受益",
  "106049": "选择了",
  "106050": "明显的",
  "106051": "报考",
  "106052": "笑道",
  "106053": "雖然",
  "106054": "温州",
  "106055": "非洲",
  "106056": "种种",
  "106057": "参加了",
  "106058": "货运",
  "106059": "随便",
  "106060": "就没有",
  "106061": "縣",
  "106062": "央视",
  "106063": "穿越",
  "106064": "的现象",
  "106065": "几次",
  "106066": "的风险",
  "106067": "歌曲",
  "106068": "本届",
  "106069": "年内",
  "106070": "不超过",
  "106071": "过多",
  "106072": "必须要",
  "106073": "结论",
  "106074": "借鉴",
  "106075": "神奇",
  "106076": "期望",
  "106077": "专享",
  "106078": "非常重要",
  "106079": "意识到",
  "106080": "合并",
  "106081": "把自己",
  "106082": "套装",
  "106083": "魔法",
  "106084": "夏季",
  "106085": "不像",
  "106086": "境界",
  "106087": "惊喜",
  "106088": "有一天",
  "106089": "焦点",
  "106090": "我认为",
  "106091": "兰州",
  "106092": "电气",
  "106093": "联系我们",
  "106094": "科普",
  "106095": "她说",
  "106096": "的文章",
  "106097": "奇怪",
  "106098": "友好",
  "106099": "饮料",
  "106100": "的支持",
  "106101": "答应",
  "106102": "重量",
  "106103": "瑶",
  "106104": "减轻",
  "106105": "科学家",
  "106106": "巴西",
  "106107": "金融机构",
  "106108": "党委书记",
  "106109": "貸款",
  "106110": "精致",
  "106111": "从未",
  "106112": "印刷",
  "106113": "回顾",
  "106114": "首都",
  "106115": "发育",
  "106116": "问道",
  "106117": "达到了",
  "106118": "忍不住",
  "106119": "才有",
  "106120": "捐赠",
  "106121": "佛教",
  "106122": "不清",
  "106123": "队长",
  "106124": "相反",
  "106125": "报警",
  "106126": "大全",
  "106127": "欧盟",
  "106128": "帮忙",
  "106129": "的時候",
  "106130": "目录",
  "106131": "足以",
  "106132": "艰难",
  "106133": "他也",
  "106134": "工作者",
  "106135": "头脑",
  "106136": "缺陷",
  "106137": "成立了",
  "106138": "就开始",
  "106139": "认同",
  "106140": "黄色",
  "106141": "病情",
  "106142": "覺得",
  "106143": "这两",
  "106144": "信仰",
  "106145": "國家",
  "106146": "不仅仅是",
  "106147": "独家",
  "106148": "般的",
  "106149": "材质",
  "106150": "海上",
  "106151": "為了",
  "106152": "机动车",
  "106153": "相当于",
  "106154": "多元化",
  "106155": "更大的",
  "106156": "蛮",
  "106157": "假期",
  "106158": "式的",
  "106159": "交通运输",
  "106160": "省委",
  "106161": "不算",
  "106162": "放下",
  "106163": "闯",
  "106164": "人在",
  "106165": "港口",
  "106166": "旨在",
  "106167": "命令",
  "106168": "某个",
  "106169": "平稳",
  "106170": "只好",
  "106171": "人人",
  "106172": "亞",
  "106173": "二维",
  "106174": "二维码",
  "106175": "极为",
  "106176": "别墅",
  "106177": "其余",
  "106178": "大事",
  "106179": "主管部门",
  "106180": "无锡",
  "106181": "闵",
  "106182": "遭到",
  "106183": "说过",
  "106184": "为你",
  "106185": "解答",
  "106186": "验收",
  "106187": "的经验",
  "106188": "匹配",
  "106189": "火箭",
  "106190": "豪华",
  "106191": "某某",
  "106192": "的时代",
  "106193": "书面",
  "106194": "恒大",
  "106195": "延长",
  "106196": "一同",
  "106197": "未能",
  "106198": "交换",
  "106199": "產品",
  "106200": "等到",
  "106201": "分离",
  "106202": "打电话",
  "106203": "干燥",
  "106204": "较多",
  "106205": "多年的",
  "106206": "背景下",
  "106207": "为例",
  "106208": "摘要",
  "106209": "崛起",
  "106210": "此刻",
  "106211": "有机会",
  "106212": "条款",
  "106213": "领导小组",
  "106214": "的身体",
  "106215": "单一",
  "106216": "央行",
  "106217": "不断提高",
  "106218": "价值观",
  "106219": "芽",
  "106220": "萍",
  "106221": "法律法规",
  "106222": "不锈",
  "106223": "不锈钢",
  "106224": "出于",
  "106225": "虚拟",
  "106226": "据悉",
  "106227": "烦恼",
  "106228": "全新的",
  "106229": "扫描",
  "106230": "登陆",
  "106231": "艺术家",
  "106232": "的食物",
  "106233": "的存在",
  "106234": "客厅",
  "106235": "我们就",
  "106236": "查看更多",
  "106237": "评审",
  "106238": "市場",
  "106239": "講",
  "106240": "巨头",
  "106241": "中国经济",
  "106242": "了自己的",
  "106243": "决议",
  "106244": "监督管理",
  "106245": "投票",
  "106246": "再度",
  "106247": "行為",
  "106248": "注入",
  "106249": "作为一个",
  "106250": "每个人都",
  "106251": "单元",
  "106252": "要知道",
  "106253": "被称为",
  "106254": "之际",
  "106255": "解除",
  "106256": "丸",
  "106257": "溫",
  "106258": "三星",
  "106259": "鲜明",
  "106260": "也都",
  "106261": "时机",
  "106262": "出手",
  "106263": "情形",
  "106264": "商贸",
  "106265": "选举",
  "106266": "对自己",
  "106267": "生动",
  "106268": "克服",
  "106269": "个体",
  "106270": "苑",
  "106271": "稱",
  "106272": "大厦",
  "106273": "是对",
  "106274": "利息",
  "106275": "运动员",
  "106276": "化解",
  "106277": "前沿",
  "106278": "感恩",
  "106279": "总之",
  "106280": "高新技术",
  "106281": "均为",
  "106282": "全区",
  "106283": "气氛",
  "106284": "可以说是",
  "106285": "住宿",
  "106286": "党员干部",
  "106287": "嗯",
  "106288": "践行",
  "106289": "的专业",
  "106290": "考验",
  "106291": "蕾",
  "106292": "公子",
  "106293": "的状态",
  "106294": "潮流",
  "106295": "信托",
  "106296": "贼",
  "106297": "各方",
  "106298": "救助",
  "106299": "非常的",
  "106300": "桥梁",
  "106301": "公斤",
  "106302": "似的",
  "106303": "看好",
  "106304": "局部",
  "106305": "安静",
  "106306": "配件",
  "106307": "常规",
  "106308": "开车",
  "106309": "第二次",
  "106310": "上级",
  "106311": "参赛",
  "106312": "家属",
  "106313": "强势",
  "106314": "在他",
  "106315": "向前",
  "106316": "之地",
  "106317": "郡",
  "106318": "行程",
  "106319": "警告",
  "106320": "规定的",
  "106321": "商城",
  "106322": "五大",
  "106323": "教室",
  "106324": "十足",
  "106325": "所以在",
  "106326": "将继续",
  "106327": "等方式",
  "106328": "家企业",
  "106329": "交付",
  "106330": "点评",
  "106331": "结算",
  "106332": "也可",
  "106333": "外汇",
  "106334": "这种情况",
  "106335": "授予",
  "106336": "布置",
  "106337": "成立于",
  "106338": "预警",
  "106339": "管理人员",
  "106340": "婚礼",
  "106341": "结束后",
  "106342": "入选",
  "106343": "无比",
  "106344": "和发展",
  "106345": "白酒",
  "106346": "玩具",
  "106347": "万美元",
  "106348": "的成绩",
  "106349": "拍照",
  "106350": "考虑到",
  "106351": "企业发展",
  "106352": "了个",
  "106353": "生气",
  "106354": "的女人",
  "106355": "五十",
  "106356": "爷爷",
  "106357": "纽约",
  "106358": "都被",
  "106359": "上课",
  "106360": "盡",
  "106361": "传统文化",
  "106362": "潜在",
  "106363": "发射",
  "106364": "一身",
  "106365": "防守",
  "106366": "刮",
  "106367": "题目",
  "106368": "在内的",
  "106369": "美好的",
  "106370": "这里的",
  "106371": "一丝",
  "106372": "人均",
  "106373": "倡导",
  "106374": "身后",
  "106375": "扩展",
  "106376": "大门",
  "106377": "就被",
  "106378": "该项目",
  "106379": "架构",
  "106380": "一口",
  "106381": "信息技术",
  "106382": "开业",
  "106383": "收取",
  "106384": "网页",
  "106385": "支援",
  "106386": "封闭",
  "106387": "塑造",
  "106388": "大胆",
  "106389": "快速发展",
  "106390": "看似",
  "106391": "渝",
  "106392": "这样一个",
  "106393": "模块",
  "106394": "注意到",
  "106395": "破解",
  "106396": "自从",
  "106397": "呵呵",
  "106398": "之後",
  "106399": "之旅",
  "106400": "跟我",
  "106401": "法人",
  "106402": "排行榜",
  "106403": "坚守",
  "106404": "好处",
  "106405": "石头",
  "106406": "并将",
  "106407": "舱",
  "106408": "歇",
  "106409": "两岸",
  "106410": "多久",
  "106411": "象征",
  "106412": "个性化",
  "106413": "的角度",
  "106414": "帆",
  "106415": "福州",
  "106416": "查处",
  "106417": "两国",
  "106418": "吸引了",
  "106419": "首席",
  "106420": "大哥",
  "106421": "養",
  "106422": "涨幅",
  "106423": "选用",
  "106424": "許多",
  "106425": "落户",
  "106426": "哈尔",
  "106427": "哈尔滨",
  "106428": "做什么",
  "106429": "以免",
  "106430": "龍",
  "106431": "无需",
  "106432": "到底是",
  "106433": "怡",
  "106434": "告诉你",
  "106435": "防水",
  "106436": "这时候",
  "106437": "欢乐",
  "106438": "转向",
  "106439": "这个地图",
  "106440": "入驻",
  "106441": "草原",
  "106442": "时代的",
  "106443": "变动",
  "106444": "加强对",
  "106445": "偶尔",
  "106446": "守护",
  "106447": "气温",
  "106448": "人间",
  "106449": "朝鲜",
  "106450": "经费",
  "106451": "园林",
  "106452": "工地",
  "106453": "规格",
  "106454": "几十",
  "106455": "试图",
  "106456": "妃",
  "106457": "那时候",
  "106458": "弘扬",
  "106459": "业界",
  "106460": "的速度",
  "106461": "会不会",
  "106462": "营收",
  "106463": "小微企业",
  "106464": "看过",
  "106465": "把他",
  "106466": "遵循",
  "106467": "这边",
  "106468": "没有人",
  "106469": "壶",
  "106470": "湖南省",
  "106471": "极其",
  "106472": "的人生",
  "106473": "他还",
  "106474": "转化为",
  "106475": "走过",
  "106476": "抱着",
  "106477": "牛奶",
  "106478": "万亩",
  "106479": "心态",
  "106480": "日常生活",
  "106481": "体检",
  "106482": "晃",
  "106483": "等领域",
  "106484": "應該",
  "106485": "可以看到",
  "106486": "找不到",
  "106487": "老年",
  "106488": "把我",
  "106489": "积分",
  "106490": "梳理",
  "106491": "绳",
  "106492": "的政治",
  "106493": "帝国",
  "106494": "陪伴",
  "106495": "洛阳",
  "106496": "公正",
  "106497": "开口",
  "106498": "特色的",
  "106499": "困境",
  "106500": "上有",
  "106501": "立体",
  "106502": "打工",
  "106503": "啤酒",
  "106504": "在那里",
  "106505": "那边",
  "106506": "个别",
  "106507": "一定是",
  "106508": "的重要性",
  "106509": "主张",
  "106510": "和服务",
  "106511": "上网",
  "106512": "补助",
  "106513": "只需",
  "106514": "弦",
  "106515": "遮",
  "106516": "力争",
  "106517": "度过",
  "106518": "葬",
  "106519": "顿时",
  "106520": "鄉",
  "106521": "纺织",
  "106522": "地块",
  "106523": "信用卡",
  "106524": "罚款",
  "106525": "告诉我",
  "106526": "雙",
  "106527": "书画",
  "106528": "設計",
  "106529": "总会",
  "106530": "判决",
  "106531": "信誉",
  "106532": "个股",
  "106533": "平常",
  "106534": "怎麼",
  "106535": "体现在",
  "106536": "黄河",
  "106537": "四川省",
  "106538": "真相",
  "106539": "各项工作",
  "106540": "动员",
  "106541": "峰会",
  "106542": "一期",
  "106543": "有一定的",
  "106544": "高度重视",
  "106545": "繁荣",
  "106546": "发现了",
  "106547": "网红",
  "106548": "手法",
  "106549": "家园",
  "106550": "仪器",
  "106551": "较低",
  "106552": "的安全",
  "106553": "桐",
  "106554": "付款",
  "106555": "抑制",
  "106556": "卓越",
  "106557": "正面",
  "106558": "哑",
  "106559": "强制",
  "106560": "今天的",
  "106561": "战胜",
  "106562": "楼市",
  "106563": "拿下",
  "106564": "颜值",
  "106565": "东部",
  "106566": "研制",
  "106567": "的战略",
  "106568": "在一个",
  "106569": "三人",
  "106570": "完了",
  "106571": "新技术",
  "106572": "经济效益",
  "106573": "富有",
  "106574": "澳洲",
  "106575": "助理",
  "106576": "领取",
  "106577": "谭",
  "106578": "燃烧",
  "106579": "素养",
  "106580": "還有",
  "106581": "进而",
  "106582": "什么是",
  "106583": "研究中心",
  "106584": "适用于",
  "106585": "接收",
  "106586": "失望",
  "106587": "二级",
  "106588": "间的",
  "106589": "原标题",
  "106590": "認為",
  "106591": "捡",
  "106592": "对着",
  "106593": "对面",
  "106594": "中原",
  "106595": "铃",
  "106596": "生产的",
  "106597": "发布会",
  "106598": "士兵",
  "106599": "这句话",
  "106600": "缴纳",
  "106601": "一个个",
  "106602": "學生",
  "106603": "疑问",
  "106604": "交警",
  "106605": "示范区",
  "106606": "天使",
  "106607": "在上海",
  "106608": "同時",
  "106609": "轻易",
  "106610": "唯一的",
  "106611": "热闹",
  "106612": "乐观",
  "106613": "的身份",
  "106614": "善于",
  "106615": "大厅",
  "106616": "肯定是",
  "106617": "防火",
  "106618": "外出",
  "106619": "据说",
  "106620": "项目的",
  "106621": "一台",
  "106622": "虚假",
  "106623": "一笔",
  "106624": "立法",
  "106625": "严肃",
  "106626": "承办",
  "106627": "十几",
  "106628": "的空间",
  "106629": "本网站",
  "106630": "做得",
  "106631": "保温",
  "106632": "月初",
  "106633": "在网上",
  "106634": "各方面",
  "106635": "三天",
  "106636": "交易所",
  "106637": "解析",
  "106638": "党中央",
  "106639": "进出口",
  "106640": "和社会",
  "106641": "次数",
  "106642": "之家",
  "106643": "维度",
  "106644": "派出所",
  "106645": "产生了",
  "106646": "带有",
  "106647": "很强",
  "106648": "有些人",
  "106649": "年后",
  "106650": "了许多",
  "106651": "密度",
  "106652": "学期",
  "106653": "珠海",
  "106654": "最多的",
  "106655": "边缘",
  "106656": "容量",
  "106657": "第二个",
  "106658": "一直是",
  "106659": "不禁",
  "106660": "歲",
  "106661": "介绍了",
  "106662": "优雅",
  "106663": "比較",
  "106664": "职位",
  "106665": "温柔",
  "106666": "有钱",
  "106667": "最高的",
  "106668": "博览会",
  "106669": "不成",
  "106670": "错了",
  "106671": "证监",
  "106672": "证监会",
  "106673": "成人",
  "106674": "均匀",
  "106675": "有利",
  "106676": "越南",
  "106677": "打了",
  "106678": "好吃",
  "106679": "系統",
  "106680": "跟随",
  "106681": "的地位",
  "106682": "正如",
  "106683": "稍微",
  "106684": "印发",
  "106685": "创立",
  "106686": "风光",
  "106687": "将成为",
  "106688": "不高",
  "106689": "频繁",
  "106690": "设有",
  "106691": "伞",
  "106692": "拆除",
  "106693": "影像",
  "106694": "渗透",
  "106695": "年开始",
  "106696": "网易",
  "106697": "要做",
  "106698": "电动车",
  "106699": "真心",
  "106700": "海军",
  "106701": "传来",
  "106702": "差别",
  "106703": "谨慎",
  "106704": "烟台",
  "106705": "千年",
  "106706": "证实",
  "106707": "琪",
  "106708": "的具体",
  "106709": "到处",
  "106710": "不宜",
  "106711": "蜀",
  "106712": "能力和",
  "106713": "牺牲",
  "106714": "的钱",
  "106715": "大队",
  "106716": "首要",
  "106717": "不愿",
  "106718": "玫瑰",
  "106719": "人民网",
  "106720": "还是要",
  "106721": "四年",
  "106722": "损伤",
  "106723": "的做法",
  "106724": "靈",
  "106725": "衔接",
  "106726": "合成",
  "106727": "没人",
  "106728": "门槛",
  "106729": "信贷",
  "106730": "的相关",
  "106731": "东风",
  "106732": "社保",
  "106733": "下游",
  "106734": "块钱",
  "106735": "过后",
  "106736": "的应用",
  "106737": "饶",
  "106738": "颁发",
  "106739": "一处",
  "106740": "华夏",
  "106741": "为企业",
  "106742": "只会",
  "106743": "侵害",
  "106744": "的功能",
  "106745": "學習",
  "106746": "中华民族",
  "106747": "发布了",
  "106748": "迎接",
  "106749": "我自己",
  "106750": "还需要",
  "106751": "太阳能",
  "106752": "去世",
  "106753": "是你",
  "106754": "合力",
  "106755": "绘画",
  "106756": "台北",
  "106757": "督促",
  "106758": "北部",
  "106759": "有多少",
  "106760": "很重要",
  "106761": "划分",
  "106762": "号线",
  "106763": "放大",
  "106764": "会被",
  "106765": "获奖",
  "106766": "之内",
  "106767": "失去了",
  "106768": "玩家们",
  "106769": "采集",
  "106770": "壹",
  "106771": "家伙",
  "106772": "白天",
  "106773": "因为他",
  "106774": "社会治理",
  "106775": "开创",
  "106776": "电缆",
  "106777": "新一代",
  "106778": "并购",
  "106779": "就已经",
  "106780": "的社会",
  "106781": "除非",
  "106782": "可以用",
  "106783": "婉",
  "106784": "比较好",
  "106785": "实业",
  "106786": "创办",
  "106787": "提起",
  "106788": "黃",
  "106789": "住在",
  "106790": "市政",
  "106791": "面临的",
  "106792": "能在",
  "106793": "短短",
  "106794": "真人",
  "106795": "明明",
  "106796": "资助",
  "106797": "的不同",
  "106798": "小朋友",
  "106799": "题材",
  "106800": "美味",
  "106801": "星座",
  "106802": "不一样的",
  "106803": "看上去",
  "106804": "一根",
  "106805": "广州市",
  "106806": "发生的",
  "106807": "高科技",
  "106808": "一辈子",
  "106809": "交叉",
  "106810": "体系建设",
  "106811": "因为我",
  "106812": "珍惜",
  "106813": "上学",
  "106814": "战术",
  "106815": "此类",
  "106816": "交往",
  "106817": "按摩",
  "106818": "人们的",
  "106819": "其實",
  "106820": "原材料",
  "106821": "渴望",
  "106822": "相处",
  "106823": "微微",
  "106824": "殷",
  "106825": "乘坐",
  "106826": "开展了",
  "106827": "高品质",
  "106828": "无人机",
  "106829": "不是很",
  "106830": "的投资",
  "106831": "节省",
  "106832": "臉",
  "106833": "精选",
  "106834": "的标准",
  "106835": "南部",
  "106836": "认识到",
  "106837": "平静",
  "106838": "藥",
  "106839": "扫黑",
  "106840": "扫黑除",
  "106841": "扫黑除恶",
  "106842": "這種",
  "106843": "建筑面积",
  "106844": "确立",
  "106845": "管理办法",
  "106846": "意志",
  "106847": "丨",
  "106848": "让孩子",
  "106849": "救灾",
  "106850": "当今",
  "106851": "火灾",
  "106852": "各部门",
  "106853": "侵犯",
  "106854": "每周",
  "106855": "揽",
  "106856": "一次性",
  "106857": "其他人",
  "106858": "错过",
  "106859": "与其",
  "106860": "勇气",
  "106861": "燃气",
  "106862": "首届",
  "106863": "服饰",
  "106864": "粥",
  "106865": "完毕",
  "106866": "就把",
  "106867": "办事处",
  "106868": "一会儿",
  "106869": "离不开",
  "106870": "如果您",
  "106871": "仓库",
  "106872": "导师",
  "106873": "合适的",
  "106874": "毫米",
  "106875": "安全性",
  "106876": "依照",
  "106877": "产业化",
  "106878": "你看",
  "106879": "真的很",
  "106880": "孤独",
  "106881": "防御",
  "106882": "很简单",
  "106883": "风水",
  "106884": "但也",
  "106885": "推出了",
  "106886": "民营企业",
  "106887": "码头",
  "106888": "复杂的",
  "106889": "组成部分",
  "106890": "充满了",
  "106891": "近几年",
  "106892": "省政府",
  "106893": "有必要",
  "106894": "陳",
  "106895": "之类",
  "106896": "之类的",
  "106897": "性价",
  "106898": "性价比",
  "106899": "商店",
  "106900": "市值",
  "106901": "人才培养",
  "106902": "深受",
  "106903": "管理局",
  "106904": "恐惧",
  "106905": "仅有",
  "106906": "抵达",
  "106907": "海关",
  "106908": "赋予",
  "106909": "事儿",
  "106910": "价钱",
  "106911": "手上",
  "106912": "自律",
  "106913": "关爱",
  "106914": "享有",
  "106915": "遗憾",
  "106916": "很快就",
  "106917": "更快",
  "106918": "标识",
  "106919": "庆祝",
  "106920": "也好",
  "106921": "不易",
  "106922": "我很",
  "106923": "改革发展",
  "106924": "外地",
  "106925": "抵押",
  "106926": "诗人",
  "106927": "厕所",
  "106928": "新媒体",
  "106929": "薛",
  "106930": "谈话",
  "106931": "一定程度",
  "106932": "走在",
  "106933": "最强",
  "106934": "功率",
  "106935": "共识",
  "106936": "大桥",
  "106937": "下方",
  "106938": "外资",
  "106939": "碱",
  "106940": "巡视",
  "106941": "湖北省",
  "106942": "个百分",
  "106943": "个百分点",
  "106944": "的责任",
  "106945": "的品牌",
  "106946": "助推",
  "106947": "创造了",
  "106948": "任职",
  "106949": "快捷",
  "106950": "村庄",
  "106951": "去看",
  "106952": "才能够",
  "106953": "層",
  "106954": "我家",
  "106955": "是一款",
  "106956": "羅",
  "106957": "冰雪",
  "106958": "极大",
  "106959": "灯光",
  "106960": "醋",
  "106961": "与其他",
  "106962": "提出的",
  "106963": "靠近",
  "106964": "调动",
  "106965": "尽可能",
  "106966": "发力",
  "106967": "给她",
  "106968": "适量",
  "106969": "跨国",
  "106970": "先行",
  "106971": "新材料",
  "106972": "作了",
  "106973": "满了",
  "106974": "不满",
  "106975": "的眼睛",
  "106976": "看得",
  "106977": "这一次",
  "106978": "齐全",
  "106979": "的一部分",
  "106980": "丙",
  "106981": "清新",
  "106982": "說明",
  "106983": "身边的",
  "106984": "所有人",
  "106985": "彰显",
  "106986": "豹",
  "106987": "卿",
  "106988": "运转",
  "106989": "指引",
  "106990": "市公安局",
  "106991": "参展",
  "106992": "之时",
  "106993": "金融服务",
  "106994": "资本市场",
  "106995": "能让",
  "106996": "忘了",
  "106997": "天堂",
  "106998": "比如说",
  "106999": "銀行",
  "107000": "蛋糕",
  "107001": "甩",
  "107002": "核实",
  "107003": "普京",
  "107004": "优美",
  "107005": "口腔",
  "107006": "漫画",
  "107007": "眼里",
  "107008": "了下来",
  "107009": "我们也",
  "107010": "侍",
  "107011": "为中心",
  "107012": "奇迹",
  "107013": "青睐",
  "107014": "截至目前",
  "107015": "出來",
  "107016": "总公司",
  "107017": "弥补",
  "107018": "算法",
  "107019": "工作室",
  "107020": "所以我",
  "107021": "水分",
  "107022": "所属",
  "107023": "不说",
  "107024": "但是在",
  "107025": "要去",
  "107026": "创业者",
  "107027": "不清楚",
  "107028": "四周",
  "107029": "是从",
  "107030": "的根本",
  "107031": "灶",
  "107032": "毛泽",
  "107033": "毛泽东",
  "107034": "海口",
  "107035": "四十",
  "107036": "也被",
  "107037": "職",
  "107038": "一手",
  "107039": "绩效",
  "107040": "的男人",
  "107041": "书籍",
  "107042": "一脸",
  "107043": "大于",
  "107044": "零部件",
  "107045": "关怀",
  "107046": "平米",
  "107047": "暴露",
  "107048": "得多",
  "107049": "三级",
  "107050": "本周",
  "107051": "两者",
  "107052": "对中国",
  "107053": "只见",
  "107054": "欧美",
  "107055": "如果有",
  "107056": "已经是",
  "107057": "看完",
  "107058": "火锅",
  "107059": "赐",
  "107060": "一遍",
  "107061": "感冒",
  "107062": "结局",
  "107063": "仓储",
  "107064": "实地",
  "107065": "副总经理",
  "107066": "也不知道",
  "107067": "碰到",
  "107068": "合计",
  "107069": "客户的",
  "107070": "罗马",
  "107071": "愉快",
  "107072": "飛",
  "107073": "热烈",
  "107074": "伦敦",
  "107075": "医保",
  "107076": "阿里巴巴",
  "107077": "再说",
  "107078": "为基础",
  "107079": "生产经营",
  "107080": "这些人",
  "107081": "列车",
  "107082": "河北省",
  "107083": "这段",
  "107084": "活动中",
  "107085": "婷",
  "107086": "生理",
  "107087": "中国人民",
  "107088": "鄂",
  "107089": "听取",
  "107090": "复习",
  "107091": "有益",
  "107092": "收拾",
  "107093": "很可能",
  "107094": "网络游戏",
  "107095": "们的",
  "107096": "赋能",
  "107097": "难得",
  "107098": "分手",
  "107099": "真诚",
  "107100": "公司在",
  "107101": "均衡",
  "107102": "口味",
  "107103": "牵头",
  "107104": "一般的",
  "107105": "轿车",
  "107106": "等于",
  "107107": "沉默",
  "107108": "我都",
  "107109": "小程序",
  "107110": "一副",
  "107111": "承载",
  "107112": "地质",
  "107113": "界面",
  "107114": "电机",
  "107115": "焦虑",
  "107116": "销售额",
  "107117": "新车",
  "107118": "上游",
  "107119": "主演",
  "107120": "隐私",
  "107121": "发展战略",
  "107122": "的努力",
  "107123": "开关",
  "107124": "解决问题",
  "107125": "督导",
  "107126": "对抗",
  "107127": "很多人都",
  "107128": "无效",
  "107129": "产品质量",
  "107130": "安心",
  "107131": "华人",
  "107132": "不符合",
  "107133": "自家",
  "107134": "阵容",
  "107135": "的各种",
  "107136": "的理念",
  "107137": "的文化",
  "107138": "为自己",
  "107139": "山水",
  "107140": "游泳",
  "107141": "震荡",
  "107142": "生活方式",
  "107143": "远离",
  "107144": "石化",
  "107145": "此事",
  "107146": "是真的",
  "107147": "的比例",
  "107148": "用电",
  "107149": "奥运会",
  "107150": "保安",
  "107151": "蛋白质",
  "107152": "的心理",
  "107153": "巫",
  "107154": "号码",
  "107155": "气体",
  "107156": "发改",
  "107157": "发改委",
  "107158": "医师",
  "107159": "涂料",
  "107160": "昊",
  "107161": "市级",
  "107162": "世界的",
  "107163": "分别是",
  "107164": "破产",
  "107165": "一杯",
  "107166": "拉开",
  "107167": "平凡",
  "107168": "的发生",
  "107169": "动手",
  "107170": "一直以来",
  "107171": "手工",
  "107172": "里面的",
  "107173": "无关",
  "107174": "介入",
  "107175": "走上",
  "107176": "就是要",
  "107177": "年间",
  "107178": "出現",
  "107179": "影響",
  "107180": "幅度",
  "107181": "雁",
  "107182": "道具",
  "107183": "目的地",
  "107184": "后者",
  "107185": "上演",
  "107186": "了几",
  "107187": "残疾人",
  "107188": "忙碌",
  "107189": "是否有",
  "107190": "并对",
  "107191": "会导致",
  "107192": "水库",
  "107193": "细致",
  "107194": "后悔",
  "107195": "心思",
  "107196": "做事",
  "107197": "厂房",
  "107198": "睿",
  "107199": "运营商",
  "107200": "头部",
  "107201": "的角色",
  "107202": "是他",
  "107203": "既有",
  "107204": "小时候",
  "107205": "强劲",
  "107206": "主播",
  "107207": "全国各地",
  "107208": "捏",
  "107209": "损坏",
  "107210": "商会",
  "107211": "保罗",
  "107212": "省市",
  "107213": "隧道",
  "107214": "有不少",
  "107215": "要在",
  "107216": "建设项目",
  "107217": "糖尿",
  "107218": "糖尿病",
  "107219": "条件下",
  "107220": "优质的",
  "107221": "首发",
  "107222": "当时的",
  "107223": "丰田",
  "107224": "大盘",
  "107225": "相继",
  "107226": "宁夏",
  "107227": "入住",
  "107228": "我还",
  "107229": "克斯",
  "107230": "定价",
  "107231": "平方公里",
  "107232": "的知识",
  "107233": "我们会",
  "107234": "元宝",
  "107235": "体重",
  "107236": "賣",
  "107237": "对我们",
  "107238": "石家",
  "107239": "石家庄",
  "107240": "精华",
  "107241": "形状",
  "107242": "受到了",
  "107243": "修订",
  "107244": "美國",
  "107245": "高清",
  "107246": "眼镜",
  "107247": "觉得自己",
  "107248": "带给",
  "107249": "售价",
  "107250": "门票",
  "107251": "孕妇",
  "107252": "电视台",
  "107253": "发作",
  "107254": "的味道",
  "107255": "长远",
  "107256": "公共服务",
  "107257": "正常的",
  "107258": "有过",
  "107259": "风情",
  "107260": "比重",
  "107261": "吻",
  "107262": "管理工作",
  "107263": "综合性",
  "107264": "已被",
  "107265": "说起",
  "107266": "排水",
  "107267": "不断地",
  "107268": "情怀",
  "107269": "输送",
  "107270": "过敏",
  "107271": "的可能性",
  "107272": "服用",
  "107273": "有许多",
  "107274": "委副书记",
  "107275": "化妆品",
  "107276": "暂停",
  "107277": "投资人",
  "107278": "班级",
  "107279": "说着",
  "107280": "南北",
  "107281": "分行",
  "107282": "珠宝",
  "107283": "寶",
  "107284": "增多",
  "107285": "被动",
  "107286": "特殊的",
  "107287": "關係",
  "107288": "的脸",
  "107289": "惟",
  "107290": "不一定",
  "107291": "維",
  "107292": "火爆",
  "107293": "租金",
  "107294": "瞧",
  "107295": "重建",
  "107296": "跪",
  "107297": "一種",
  "107298": "的合作",
  "107299": "安慰",
  "107300": "仍是",
  "107301": "专业化",
  "107302": "调解",
  "107303": "不妨",
  "107304": "這是",
  "107305": "必須",
  "107306": "伊朗",
  "107307": "得了",
  "107308": "服务平台",
  "107309": "姬",
  "107310": "先锋",
  "107311": "王子",
  "107312": "的一切",
  "107313": "总理",
  "107314": "哼",
  "107315": "窑",
  "107316": "的心情",
  "107317": "的重大",
  "107318": "瑟",
  "107319": "一笑",
  "107320": "发展中",
  "107321": "健康发展",
  "107322": "品牌的",
  "107323": "禮",
  "107324": "余人",
  "107325": "今年以来",
  "107326": "数码",
  "107327": "签证",
  "107328": "去找",
  "107329": "基金会",
  "107330": "抱怨",
  "107331": "正当",
  "107332": "班子成员",
  "107333": "不合格",
  "107334": "制定了",
  "107335": "缓慢",
  "107336": "制约",
  "107337": "栏目",
  "107338": "市场经济",
  "107339": "组成的",
  "107340": "严峻",
  "107341": "日讯",
  "107342": "一点点",
  "107343": "是怎么",
  "107344": "的照片",
  "107345": "阻止",
  "107346": "模糊",
  "107347": "缸",
  "107348": "違反",
  "107349": "搬迁",
  "107350": "金钱",
  "107351": "彬",
  "107352": "不安",
  "107353": "战略合作",
  "107354": "填写",
  "107355": "讲究",
  "107356": "充分利用",
  "107357": "能夠",
  "107358": "葡萄酒",
  "107359": "采用了",
  "107360": "在今年",
  "107361": "中小学",
  "107362": "在意",
  "107363": "的压力",
  "107364": "不幸",
  "107365": "制药",
  "107366": "可以让",
  "107367": "被评为",
  "107368": "细菌",
  "107369": "戏剧",
  "107370": "半导",
  "107371": "半导体",
  "107372": "视角",
  "107373": "喜歡",
  "107374": "征收",
  "107375": "谋划",
  "107376": "极大的",
  "107377": "点赞",
  "107378": "记者从",
  "107379": "两名",
  "107380": "自助",
  "107381": "起步",
  "107382": "护士",
  "107383": "宝马",
  "107384": "太子",
  "107385": "小小的",
  "107386": "温泉",
  "107387": "出租车",
  "107388": "租房",
  "107389": "两家",
  "107390": "震撼",
  "107391": "秉承",
  "107392": "一件事",
  "107393": "烈士",
  "107394": "官兵",
  "107395": "转身",
  "107396": "乐园",
  "107397": "癌症",
  "107398": "模范",
  "107399": "愣",
  "107400": "过去的",
  "107401": "代价",
  "107402": "的概念",
  "107403": "几百",
  "107404": "贵阳",
  "107405": "担忧",
  "107406": "适宜",
  "107407": "环境保护",
  "107408": "烫",
  "107409": "你想",
  "107410": "此后",
  "107411": "你也",
  "107412": "獎",
  "107413": "除此",
  "107414": "除此之外",
  "107415": "调度",
  "107416": "科目",
  "107417": "所说的",
  "107418": "劇",
  "107419": "忽视",
  "107420": "三次",
  "107421": "一日",
  "107422": "垂直",
  "107423": "竞技",
  "107424": "面包",
  "107425": "大战",
  "107426": "携带",
  "107427": "如果没有",
  "107428": "养成",
  "107429": "出血",
  "107430": "爱好者",
  "107431": "打通",
  "107432": "起诉",
  "107433": "呈现出",
  "107434": "歌手",
  "107435": "在外",
  "107436": "领导干部",
  "107437": "冥",
  "107438": "舆论",
  "107439": "提取",
  "107440": "阿尔",
  "107441": "望着",
  "107442": "三亚",
  "107443": "財",
  "107444": "刷新",
  "107445": "晚报",
  "107446": "还有一个",
  "107447": "冰箱",
  "107448": "网点",
  "107449": "出具",
  "107450": "强烈的",
  "107451": "我相信",
  "107452": "希望能",
  "107453": "牙齿",
  "107454": "事宜",
  "107455": "业内人士",
  "107456": "代替",
  "107457": "变形",
  "107458": "雲",
  "107459": "调控",
  "107460": "创新创业",
  "107461": "拆迁",
  "107462": "核查",
  "107463": "逗",
  "107464": "入学",
  "107465": "意向",
  "107466": "換",
  "107467": "下次",
  "107468": "传输",
  "107469": "他们在",
  "107470": "而且还",
  "107471": "日在",
  "107472": "教训",
  "107473": "活着",
  "107474": "的有效",
  "107475": "复工复",
  "107476": "复工复产",
  "107477": "是一件",
  "107478": "等着",
  "107479": "復",
  "107480": "勇敢",
  "107481": "遭受",
  "107482": "奔驰",
  "107483": "讲座",
  "107484": "说完",
  "107485": "给出",
  "107486": "谦",
  "107487": "诊疗",
  "107488": "盲目",
  "107489": "客运",
  "107490": "就连",
  "107491": "开元",
  "107492": "开元棋牌",
  "107493": "不断提升",
  "107494": "用户的",
  "107495": "撕",
  "107496": "供水",
  "107497": "經濟",
  "107498": "中医药",
  "107499": "联想",
  "107500": "公交车",
  "107501": "航班",
  "107502": "技術",
  "107503": "引起的",
  "107504": "尹",
  "107505": "资深",
  "107506": "国资委",
  "107507": "蘭",
  "107508": "鼻子",
  "107509": "闽",
  "107510": "排队",
  "107511": "观光",
  "107512": "遗址",
  "107513": "东京",
  "107514": "饭店",
  "107515": "不断的",
  "107516": "就是一个",
  "107517": "长久",
  "107518": "的观点",
  "107519": "娶",
  "107520": "我现在",
  "107521": "異",
  "107522": "得出",
  "107523": "必定",
  "107524": "不受",
  "107525": "只需要",
  "107526": "困扰",
  "107527": "科学技术",
  "107528": "牛肉",
  "107529": "较高的",
  "107530": "跑步",
  "107531": "沾",
  "107532": "菩萨",
  "107533": "最後",
  "107534": "保密",
  "107535": "治安",
  "107536": "邱",
  "107537": "常识",
  "107538": "脸色",
  "107539": "北大",
  "107540": "汇聚",
  "107541": "摆脱",
  "107542": "龙头企业",
  "107543": "女友",
  "107544": "等工作",
  "107545": "中美",
  "107546": "职场",
  "107547": "脑袋",
  "107548": "写的",
  "107549": "饲料",
  "107550": "劳动力",
  "107551": "屯",
  "107552": "持股",
  "107553": "图像",
  "107554": "过去了",
  "107555": "貨",
  "107556": "農",
  "107557": "问我",
  "107558": "跟你",
  "107559": "生死",
  "107560": "审美",
  "107561": "颗粒",
  "107562": "中方",
  "107563": "加热",
  "107564": "旅行社",
  "107565": "發生",
  "107566": "不堪",
  "107567": "傷",
  "107568": "楠",
  "107569": "办案",
  "107570": "柄",
  "107571": "既是",
  "107572": "处分",
  "107573": "真实的",
  "107574": "报纸",
  "107575": "师父",
  "107576": "安徽省",
  "107577": "副主席",
  "107578": "之道",
  "107579": "导弹",
  "107580": "学校的",
  "107581": "城市的",
  "107582": "谈到",
  "107583": "梗",
  "107584": "平面",
  "107585": "说什么",
  "107586": "频率",
  "107587": "长三角",
  "107588": "的利益",
  "107589": "黨",
  "107590": "豆腐",
  "107591": "实际情况",
  "107592": "林业",
  "107593": "纪检监察",
  "107594": "住院",
  "107595": "的整体",
  "107596": "前行",
  "107597": "挨",
  "107598": "煤矿",
  "107599": "副总裁",
  "107600": "小吃",
  "107601": "极端",
  "107602": "婆婆",
  "107603": "现货",
  "107604": "诗歌",
  "107605": "钥匙",
  "107606": "缩短",
  "107607": "但这",
  "107608": "新品",
  "107609": "这对",
  "107610": "知名度",
  "107611": "志愿服务",
  "107612": "大局",
  "107613": "衡量",
  "107614": "体现了",
  "107615": "桃花",
  "107616": "吸引力",
  "107617": "堤",
  "107618": "擅长",
  "107619": "咒",
  "107620": "相机",
  "107621": "一站",
  "107622": "一站式",
  "107623": "最美",
  "107624": "永久",
  "107625": "的部分",
  "107626": "分工",
  "107627": "工程建设",
  "107628": "搭载",
  "107629": "水中",
  "107630": "茨",
  "107631": "的操作",
  "107632": "统治",
  "107633": "畅通",
  "107634": "党的十",
  "107635": "輸",
  "107636": "測",
  "107637": "美观",
  "107638": "不利",
  "107639": "反思",
  "107640": "骄傲",
  "107641": "标的",
  "107642": "杀人",
  "107643": "阿姨",
  "107644": "食材",
  "107645": "吃的",
  "107646": "后再",
  "107647": "矣",
  "107648": "两侧",
  "107649": "清水",
  "107650": "进球",
  "107651": "开始了",
  "107652": "听了",
  "107653": "焊接",
  "107654": "矮",
  "107655": "娟",
  "107656": "为人",
  "107657": "送给",
  "107658": "冒险",
  "107659": "敷",
  "107660": "终止",
  "107661": "才知道",
  "107662": "运气",
  "107663": "通风",
  "107664": "惊讶",
  "107665": "科学院",
  "107666": "提问",
  "107667": "太原",
  "107668": "相同的",
  "107669": "仕",
  "107670": "聖",
  "107671": "情況",
  "107672": "领导人",
  "107673": "出来了",
  "107674": "沿线",
  "107675": "陽",
  "107676": "感覺",
  "107677": "仍在",
  "107678": "橙",
  "107679": "约为",
  "107680": "喝酒",
  "107681": "用药",
  "107682": "下一",
  "107683": "法官",
  "107684": "顺序",
  "107685": "做一个",
  "107686": "勢",
  "107687": "歪",
  "107688": "电竞",
  "107689": "伴随着",
  "107690": "之力",
  "107691": "之人",
  "107692": "云计算",
  "107693": "别人的",
  "107694": "科学发展",
  "107695": "第八",
  "107696": "干扰",
  "107697": "女神",
  "107698": "这样做",
  "107699": "处在",
  "107700": "水质",
  "107701": "长春",
  "107702": "市场需求",
  "107703": "维权",
  "107704": "耳朵",
  "107705": "文化的",
  "107706": "奶粉",
  "107707": "传达",
  "107708": "手机版",
  "107709": "曾在",
  "107710": "二期",
  "107711": "原因是",
  "107712": "源头",
  "107713": "又能",
  "107714": "裸",
  "107715": "技术创新",
  "107716": "文化旅游",
  "107717": "发票",
  "107718": "年级",
  "107719": "你不",
  "107720": "之心",
  "107721": "数百",
  "107722": "向往",
  "107723": "老家",
  "107724": "國際",
  "107725": "的高度",
  "107726": "朝阳",
  "107727": "清除",
  "107728": "自有",
  "107729": "书中",
  "107730": "游戏装备",
  "107731": "万多",
  "107732": "驾驶员",
  "107733": "你知道",
  "107734": "国庆",
  "107735": "食堂",
  "107736": "接口",
  "107737": "总数",
  "107738": "其他的",
  "107739": "生命的",
  "107740": "你在",
  "107741": "的目光",
  "107742": "这方面",
  "107743": "都说",
  "107744": "疗法",
  "107745": "勇士",
  "107746": "在全球",
  "107747": "保险公司",
  "107748": "督查",
  "107749": "善良",
  "107750": "表彰",
  "107751": "蹲",
  "107752": "路段",
  "107753": "會員規",
  "107754": "會員規範",
  "107755": "户型",
  "107756": "促使",
  "107757": "修建",
  "107758": "高水平",
  "107759": "做出了",
  "107760": "主场",
  "107761": "行走",
  "107762": "空白",
  "107763": "有人说",
  "107764": "这个世界",
  "107765": "名义",
  "107766": "完美的",
  "107767": "羡慕",
  "107768": "及其他",
  "107769": "可用",
  "107770": "拐",
  "107771": "较大的",
  "107772": "技术和",
  "107773": "尼亚",
  "107774": "百货",
  "107775": "揉",
  "107776": "选购",
  "107777": "队友",
  "107778": "传感",
  "107779": "传感器",
  "107780": "只要你",
  "107781": "为什么要",
  "107782": "专注于",
  "107783": "余额",
  "107784": "典型的",
  "107785": "目前已",
  "107786": "欲望",
  "107787": "联络",
  "107788": "流传",
  "107789": "的家庭",
  "107790": "号召",
  "107791": "珍贵",
  "107792": "伟大的",
  "107793": "鉴于",
  "107794": "跟他",
  "107795": "产物",
  "107796": "不已",
  "107797": "违法行为",
  "107798": "头上",
  "107799": "分解",
  "107800": "可以看出",
  "107801": "校区",
  "107802": "字体",
  "107803": "修炼",
  "107804": "甚至是",
  "107805": "微信公众",
  "107806": "取代",
  "107807": "营业收入",
  "107808": "潍坊",
  "107809": "你能",
  "107810": "社会保障",
  "107811": "比赛中",
  "107812": "污水处理",
  "107813": "夫妇",
  "107814": "一幅",
  "107815": "沿海",
  "107816": "口感",
  "107817": "但却",
  "107818": "当日",
  "107819": "的最大",
  "107820": "每一位",
  "107821": "没事",
  "107822": "特別",
  "107823": "开学",
  "107824": "路面",
  "107825": "心理学",
  "107826": "放置",
  "107827": "重庆市",
  "107828": "你自己",
  "107829": "消费者的",
  "107830": "一波",
  "107831": "警惕",
  "107832": "卧室",
  "107833": "注射",
  "107834": "风雨",
  "107835": "沿着",
  "107836": "告訴",
  "107837": "表现出",
  "107838": "四是",
  "107839": "古典",
  "107840": "更重要的",
  "107841": "好事",
  "107842": "眼泪",
  "107843": "樓",
  "107844": "审判",
  "107845": "碰撞",
  "107846": "车站",
  "107847": "进入了",
  "107848": "集合",
  "107849": "格外",
  "107850": "宾馆",
  "107851": "支付宝",
  "107852": "她是",
  "107853": "是如何",
  "107854": "人次",
  "107855": "的成功",
  "107856": "无力",
  "107857": "海拔",
  "107858": "春季",
  "107859": "都不会",
  "107860": "等多种",
  "107861": "一个小",
  "107862": "停车场",
  "107863": "让更多",
  "107864": "这点",
  "107865": "成品",
  "107866": "钉",
  "107867": "遇见",
  "107868": "班主任",
  "107869": "意愿",
  "107870": "的同学",
  "107871": "游览",
  "107872": "压缩",
  "107873": "在传奇",
  "107874": "弹性",
  "107875": "日内",
  "107876": "福建省",
  "107877": "角落",
  "107878": "分开",
  "107879": "会让",
  "107880": "外围",
  "107881": "熟悉的",
  "107882": "熔",
  "107883": "万辆",
  "107884": "夜间",
  "107885": "车身",
  "107886": "中期",
  "107887": "完善的",
  "107888": "品类",
  "107889": "友谊",
  "107890": "选拔",
  "107891": "骑士",
  "107892": "彦",
  "107893": "的看法",
  "107894": "国王",
  "107895": "辣椒",
  "107896": "发布时间",
  "107897": "古城",
  "107898": "随机",
  "107899": "竖",
  "107900": "开辟",
  "107901": "众生",
  "107902": "没办法",
  "107903": "千里",
  "107904": "来源于",
  "107905": "的权利",
  "107906": "比分",
  "107907": "满意的",
  "107908": "修行",
  "107909": "坠",
  "107910": "大海",
  "107911": "莹",
  "107912": "出身",
  "107913": "談",
  "107914": "关节",
  "107915": "名人",
  "107916": "需要注意",
  "107917": "早晨",
  "107918": "外卖",
  "107919": "又要",
  "107920": "涉案",
  "107921": "申请人",
  "107922": "附近的",
  "107923": "加快推进",
  "107924": "新年",
  "107925": "大街",
  "107926": "一點",
  "107927": "苏宁",
  "107928": "悄悄",
  "107929": "脾气",
  "107930": "希腊",
  "107931": "随即",
  "107932": "敢于",
  "107933": "实践中",
  "107934": "是没有",
  "107935": "有趣的",
  "107936": "来自于",
  "107937": "裁判",
  "107938": "女孩子",
  "107939": "至关",
  "107940": "至关重要",
  "107941": "智力",
  "107942": "走出去",
  "107943": "短板",
  "107944": "大国",
  "107945": "的认识",
  "107946": "年夜",
  "107947": "再到",
  "107948": "同样的",
  "107949": "密封",
  "107950": "外交部",
  "107951": "生效",
  "107952": "您可以",
  "107953": "你們",
  "107954": "过年",
  "107955": "弓",
  "107956": "行李",
  "107957": "比起",
  "107958": "身高",
  "107959": "这个人",
  "107960": "中外",
  "107961": "道歉",
  "107962": "盯着",
  "107963": "亲子",
  "107964": "闸",
  "107965": "白云",
  "107966": "脖子",
  "107967": "一切都",
  "107968": "淑",
  "107969": "谜",
  "107970": "偶然",
  "107971": "靠谱",
  "107972": "高管",
  "107973": "下发",
  "107974": "放到",
  "107975": "类别",
  "107976": "下列",
  "107977": "混乱",
  "107978": "合法权益",
  "107979": "环球",
  "107980": "有效地",
  "107981": "商户",
  "107982": "湖人",
  "107983": "海岸",
  "107984": "投产",
  "107985": "两个月",
  "107986": "都非常",
  "107987": "增强了",
  "107988": "来到了",
  "107989": "剩余",
  "107990": "您的孩子",
  "107991": "流水",
  "107992": "正义",
  "107993": "天猫",
  "107994": "做过",
  "107995": "何时",
  "107996": "我去",
  "107997": "省份",
  "107998": "奖金",
  "107999": "该如何",
  "108000": "下班",
  "108001": "偶像",
  "108002": "摆放",
  "108003": "新模式",
  "108004": "投資",
  "108005": "路口",
  "108006": "农民工",
  "108007": "大學",
  "108008": "件事",
  "108009": "根本不",
  "108010": "浓度",
  "108011": "浓厚",
  "108012": "轮胎",
  "108013": "房企",
  "108014": "非常好",
  "108015": "从中",
  "108016": "人格",
  "108017": "翁",
  "108018": "时间和",
  "108019": "这不是",
  "108020": "券商",
  "108021": "惊人",
  "108022": "器官",
  "108023": "准则",
  "108024": "情景",
  "108025": "更高的",
  "108026": "学家",
  "108027": "泡沫",
  "108028": "地方政府",
  "108029": "就知道",
  "108030": "呼吁",
  "108031": "经贸",
  "108032": "花钱",
  "108033": "有一次",
  "108034": "感慨",
  "108035": "一千",
  "108036": "夜晚",
  "108037": "詹姆",
  "108038": "詹姆斯",
  "108039": "要闻",
  "108040": "绒",
  "108041": "源于",
  "108042": "的质量",
  "108043": "注意事项",
  "108044": "慢性",
  "108045": "稳定的",
  "108046": "建设和",
  "108047": "景象",
  "108048": "量化",
  "108049": "的話",
  "108050": "评级",
  "108051": "溜",
  "108052": "红包",
  "108053": "通過",
  "108054": "社会责任",
  "108055": "新产品",
  "108056": "冷静",
  "108057": "看不到",
  "108058": "联邦",
  "108059": "魄",
  "108060": "的前提",
  "108061": "的前提下",
  "108062": "较好",
  "108063": "的感情",
  "108064": "客户提供",
  "108065": "独自",
  "108066": "增收",
  "108067": "文献",
  "108068": "拼命",
  "108069": "管理和",
  "108070": "流动性",
  "108071": "全家",
  "108072": "上方",
  "108073": "推出的",
  "108074": "三国",
  "108075": "一个是",
  "108076": "新一轮",
  "108077": "文化遗产",
  "108078": "殺",
  "108079": "大湾区",
  "108080": "都需要",
  "108081": "的实际",
  "108082": "緊",
  "108083": "大奖",
  "108084": "光芒",
  "108085": "便于",
  "108086": "的表情",
  "108087": "演绎",
  "108088": "红军",
  "108089": "当我",
  "108090": "治愈",
  "108091": "额度",
  "108092": "靜",
  "108093": "任何人",
  "108094": "街头",
  "108095": "特斯",
  "108096": "特斯拉",
  "108097": "医疗机构",
  "108098": "给孩子",
  "108099": "规矩",
  "108100": "補",
  "108101": "的身影",
  "108102": "专栏",
  "108103": "来临",
  "108104": "童年",
  "108105": "复苏",
  "108106": "訂",
  "108107": "型号",
  "108108": "图案",
  "108109": "简历",
  "108110": "拱",
  "108111": "荷兰",
  "108112": "任意",
  "108113": "承接",
  "108114": "这才",
  "108115": "客车",
  "108116": "朝着",
  "108117": "項目",
  "108118": "台风",
  "108119": "的房子",
  "108120": "骏",
  "108121": "東西",
  "108122": "遗传",
  "108123": "越多",
  "108124": "了他的",
  "108125": "上周",
  "108126": "管理制度",
  "108127": "失业",
  "108128": "男友",
  "108129": "接种",
  "108130": "威名",
  "108131": "環境",
  "108132": "发生在",
  "108133": "个国家",
  "108134": "创新发展",
  "108135": "改变了",
  "108136": "健康的",
  "108137": "值得一",
  "108138": "值得一提",
  "108139": "团伙",
  "108140": "假设",
  "108141": "台上",
  "108142": "规范化",
  "108143": "陪同",
  "108144": "座椅",
  "108145": "可怜",
  "108146": "克思主义",
  "108147": "法律责任",
  "108148": "一顿",
  "108149": "抬头",
  "108150": "为重点",
  "108151": "远洋",
  "108152": "透过",
  "108153": "全球化",
  "108154": "趣味",
  "108155": "票房",
  "108156": "每人",
  "108157": "各种各样",
  "108158": "了出来",
  "108159": "绝对是",
  "108160": "下属",
  "108161": "一双",
  "108162": "这块",
  "108163": "抗疫",
  "108164": "要点",
  "108165": "形成的",
  "108166": "我看",
  "108167": "万里",
  "108168": "考研",
  "108169": "为其",
  "108170": "民宿",
  "108171": "多位",
  "108172": "大致",
  "108173": "付费",
  "108174": "入手",
  "108175": "居家",
  "108176": "所在地",
  "108177": "人身",
  "108178": "过得",
  "108179": "试试",
  "108180": "访谈",
  "108181": "加重",
  "108182": "就不会",
  "108183": "生产企业",
  "108184": "回国",
  "108185": "底线",
  "108186": "赶到",
  "108187": "支队",
  "108188": "我们都",
  "108189": "邮政",
  "108190": "直至",
  "108191": "钢琴",
  "108192": "兜",
  "108193": "研讨会",
  "108194": "月亮",
  "108195": "坚持以",
  "108196": "公安部",
  "108197": "钢管",
  "108198": "小白",
  "108199": "置业",
  "108200": "聋",
  "108201": "书写",
  "108202": "杏",
  "108203": "配方",
  "108204": "而又",
  "108205": "瑞士",
  "108206": "界的",
  "108207": "老大",
  "108208": "成熟的",
  "108209": "干什么",
  "108210": "专项斗争",
  "108211": "等多个",
  "108212": "脱离",
  "108213": "三个月",
  "108214": "研究员",
  "108215": "旋转",
  "108216": "极致",
  "108217": "免责",
  "108218": "免责声明",
  "108219": "很多玩家",
  "108220": "车上",
  "108221": "交互",
  "108222": "已是",
  "108223": "一小",
  "108224": "的重点",
  "108225": "花了",
  "108226": "不明",
  "108227": "有关规定",
  "108228": "犹如",
  "108229": "眸",
  "108230": "寡",
  "108231": "的衣服",
  "108232": "包裹",
  "108233": "身子",
  "108234": "师范大学",
  "108235": "事先",
  "108236": "线条",
  "108237": "法制",
  "108238": "养护",
  "108239": "稳定性",
  "108240": "邵",
  "108241": "垄断",
  "108242": "額",
  "108243": "考古",
  "108244": "杠杆",
  "108245": "苏联",
  "108246": "水电",
  "108247": "具体的",
  "108248": "激活",
  "108249": "我校",
  "108250": "刚开始",
  "108251": "凸显",
  "108252": "禾",
  "108253": "兼职",
  "108254": "透過",
  "108255": "在游戏中",
  "108256": "社会发展",
  "108257": "好玩",
  "108258": "幻想",
  "108259": "不代表",
  "108260": "注意力",
  "108261": "棍",
  "108262": "用手",
  "108263": "美人",
  "108264": "许多人",
  "108265": "很是",
  "108266": "的研发",
  "108267": "打出",
  "108268": "合伙人",
  "108269": "一夜",
  "108270": "缓缓",
  "108271": "修正",
  "108272": "感知",
  "108273": "终身",
  "108274": "激素",
  "108275": "环境下",
  "108276": "次会议",
  "108277": "经济增长",
  "108278": "扛",
  "108279": "发酵",
  "108280": "分析师",
  "108281": "在未来",
  "108282": "主要有",
  "108283": "一季度",
  "108284": "的说法",
  "108285": "从来没有",
  "108286": "货车",
  "108287": "缩小",
  "108288": "太过",
  "108289": "效力",
  "108290": "不下",
  "108291": "投稿",
  "108292": "药业",
  "108293": "组长",
  "108294": "站点",
  "108295": "很喜欢",
  "108296": "鐵",
  "108297": "势头",
  "108298": "漏洞",
  "108299": "愤怒",
  "108300": "充实",
  "108301": "创业板",
  "108302": "爪",
  "108303": "未必",
  "108304": "底部",
  "108305": "得分",
  "108306": "人民医院",
  "108307": "二手房",
  "108308": "已经被",
  "108309": "大楼",
  "108310": "新房",
  "108311": "辦法",
  "108312": "用力",
  "108313": "拓宽",
  "108314": "内在",
  "108315": "播出",
  "108316": "饰演",
  "108317": "也让",
  "108318": "作為",
  "108319": "物业管理",
  "108320": "却不",
  "108321": "为中国",
  "108322": "局势",
  "108323": "不肯",
  "108324": "最新的",
  "108325": "可以选择",
  "108326": "显现",
  "108327": "就算是",
  "108328": "在校",
  "108329": "龟",
  "108330": "两条",
  "108331": "的实力",
  "108332": "越好",
  "108333": "她在",
  "108334": "忠诚",
  "108335": "也需要",
  "108336": "游戏操作",
  "108337": "超出",
  "108338": "如果不",
  "108339": "所在的",
  "108340": "你还",
  "108341": "以内",
  "108342": "有一定",
  "108343": "可达",
  "108344": "跑到",
  "108345": "剛",
  "108346": "建立健全",
  "108347": "整车",
  "108348": "前方",
  "108349": "间接",
  "108350": "筹备",
  "108351": "疲劳",
  "108352": "离开了",
  "108353": "汝",
  "108354": "面部",
  "108355": "之前的",
  "108356": "变为",
  "108357": "如果说",
  "108358": "对付",
  "108359": "均可",
  "108360": "被告人",
  "108361": "精美",
  "108362": "聚会",
  "108363": "着急",
  "108364": "谷歌",
  "108365": "一号",
  "108366": "红利",
  "108367": "传奇游戏",
  "108368": "廖",
  "108369": "贞",
  "108370": "买到",
  "108371": "魚",
  "108372": "体质",
  "108373": "少了",
  "108374": "泉州",
  "108375": "吟",
  "108376": "绝不",
  "108377": "黑恶",
  "108378": "黑恶势力",
  "108379": "上映",
  "108380": "的话题",
  "108381": "万人次",
  "108382": "世间",
  "108383": "用工",
  "108384": "贯穿",
  "108385": "宝石",
  "108386": "你好",
  "108387": "切割",
  "108388": "强国",
  "108389": "回落",
  "108390": "水晶",
  "108391": "模仿",
  "108392": "洪水",
  "108393": "這麼",
  "108394": "十三五",
  "108395": "佑",
  "108396": "附件",
  "108397": "的增长",
  "108398": "附属",
  "108399": "现已",
  "108400": "帮你",
  "108401": "金牌",
  "108402": "高原",
  "108403": "在家里",
  "108404": "防腐",
  "108405": "确实是",
  "108406": "宣讲",
  "108407": "天才",
  "108408": "经营管理",
  "108409": "锅炉",
  "108410": "合一",
  "108411": "观赏",
  "108412": "长达",
  "108413": "主义思想",
  "108414": "那麼",
  "108415": "风云",
  "108416": "为主的",
  "108417": "暑假",
  "108418": "持久",
  "108419": "异地",
  "108420": "开门",
  "108421": "模板",
  "108422": "批次",
  "108423": "不便",
  "108424": "天生",
  "108425": "几个月",
  "108426": "专科",
  "108427": "另有",
  "108428": "公布的",
  "108429": "懷",
  "108430": "场合",
  "108431": "的心态",
  "108432": "还好",
  "108433": "实战",
  "108434": "老师的",
  "108435": "兩個",
  "108436": "可在",
  "108437": "那位",
  "108438": "奠定了",
  "108439": "促销",
  "108440": "援助",
  "108441": "万物",
  "108442": "情报",
  "108443": "首先要",
  "108444": "文化和",
  "108445": "都已经",
  "108446": "上世纪",
  "108447": "农场",
  "108448": "大批",
  "108449": "明白了",
  "108450": "的成长",
  "108451": "的比赛",
  "108452": "失误",
  "108453": "做成",
  "108454": "今天小编",
  "108455": "领袖",
  "108456": "提升了",
  "108457": "徐州",
  "108458": "仍有",
  "108459": "过滤",
  "108460": "幽默",
  "108461": "热量",
  "108462": "一首",
  "108463": "漂亮的",
  "108464": "几种",
  "108465": "倡议",
  "108466": "就可以了",
  "108467": "排列",
  "108468": "重重",
  "108469": "企业和",
  "108470": "专属",
  "108471": "煎",
  "108472": "亲戚",
  "108473": "百分之",
  "108474": "稿件",
  "108475": "还得",
  "108476": "人員",
  "108477": "争夺",
  "108478": "更容易",
  "108479": "大自然",
  "108480": "電腦",
  "108481": "太空",
  "108482": "地处",
  "108483": "夢",
  "108484": "他对",
  "108485": "必将",
  "108486": "不当",
  "108487": "严谨",
  "108488": "出场",
  "108489": "已经有",
  "108490": "领军",
  "108491": "高档",
  "108492": "一所",
  "108493": "栗",
  "108494": "让学生",
  "108495": "曹操",
  "108496": "某一",
  "108497": "伸出",
  "108498": "花卉",
  "108499": "清醒",
  "108500": "联系方式",
  "108501": "分局",
  "108502": "腳",
  "108503": "橡胶",
  "108504": "长得",
  "108505": "绿地",
  "108506": "袍",
  "108507": "的艺术",
  "108508": "女朋友",
  "108509": "中超",
  "108510": "离子",
  "108511": "多样化",
  "108512": "阳台",
  "108513": "低碳",
  "108514": "一类",
  "108515": "等方面的",
  "108516": "得好",
  "108517": "模具",
  "108518": "万亿",
  "108519": "留意",
  "108520": "临沂",
  "108521": "少量",
  "108522": "看向",
  "108523": "经营者",
  "108524": "留下了",
  "108525": "坏了",
  "108526": "告别",
  "108527": "真理",
  "108528": "缴费",
  "108529": "把你",
  "108530": "的任务",
  "108531": "我对",
  "108532": "买入",
  "108533": "登上",
  "108534": "有两个",
  "108535": "一头",
  "108536": "操控",
  "108537": "全覆盖",
  "108538": "着手",
  "108539": "墙面",
  "108540": "多方",
  "108541": "可爱的",
  "108542": "也可能",
  "108543": "最有",
  "108544": "这些都是",
  "108545": "惡",
  "108546": "宮",
  "108547": "很小",
  "108548": "问题是",
  "108549": "均有",
  "108550": "征集",
  "108551": "说出",
  "108552": "有意",
  "108553": "颂",
  "108554": "扬州",
  "108555": "商业模式",
  "108556": "生肖",
  "108557": "捐款",
  "108558": "岂",
  "108559": "美景",
  "108560": "还真",
  "108561": "拥抱",
  "108562": "身体健康",
  "108563": "深处",
  "108564": "眼神",
  "108565": "的形象",
  "108566": "优越",
  "108567": "当成",
  "108568": "区分",
  "108569": "去除",
  "108570": "注定",
  "108571": "姐妹",
  "108572": "区内",
  "108573": "驚",
  "108574": "暗示",
  "108575": "明亮",
  "108576": "慰问",
  "108577": "市场份额",
  "108578": "猪肉",
  "108579": "的资金",
  "108580": "历经",
  "108581": "始终坚持",
  "108582": "生机",
  "108583": "不顾",
  "108584": "金刚",
  "108585": "大声",
  "108586": "陕西省",
  "108587": "鲍",
  "108588": "农业农村",
  "108589": "有害",
  "108590": "门诊",
  "108591": "每一次",
  "108592": "的因素",
  "108593": "额外",
  "108594": "县级",
  "108595": "皇后",
  "108596": "国企",
  "108597": "首选",
  "108598": "编写",
  "108599": "拿起",
  "108600": "偷偷",
  "108601": "与中国",
  "108602": "卖家",
  "108603": "给他们",
  "108604": "神话",
  "108605": "學校",
  "108606": "我一直",
  "108607": "知道了",
  "108608": "卒",
  "108609": "和地区",
  "108610": "什么都",
  "108611": "画家",
  "108612": "本着",
  "108613": "余名",
  "108614": "审理",
  "108615": "一向",
  "108616": "发展趋势",
  "108617": "区间",
  "108618": "注册资本",
  "108619": "琦",
  "108620": "不可以",
  "108621": "的儿子",
  "108622": "值班",
  "108623": "严格的",
  "108624": "实体经济",
  "108625": "有权",
  "108626": "我又",
  "108627": "银河",
  "108628": "立马",
  "108629": "杀了",
  "108630": "包容",
  "108631": "管家",
  "108632": "身體",
  "108633": "铅",
  "108634": "小子",
  "108635": "管理系统",
  "108636": "有的人",
  "108637": "风电",
  "108638": "智能制造",
  "108639": "精确",
  "108640": "招商引",
  "108641": "招商引资",
  "108642": "二手车",
  "108643": "县委",
  "108644": "艺人",
  "108645": "奕",
  "108646": "迎来了",
  "108647": "结束了",
  "108648": "的传统",
  "108649": "拼搏",
  "108650": "奥迪",
  "108651": "疑惑",
  "108652": "之日起",
  "108653": "标志着",
  "108654": "地區",
  "108655": "诠释",
  "108656": "到期",
  "108657": "全都",
  "108658": "短暂",
  "108659": "是我国",
  "108660": "我已经",
  "108661": "滴滴",
  "108662": "天赋",
  "108663": "对她",
  "108664": "卫生间",
  "108665": "生产基地",
  "108666": "日记",
  "108667": "的教学",
  "108668": "哇",
  "108669": "民事",
  "108670": "还原",
  "108671": "手中的",
  "108672": "的良好",
  "108673": "淫",
  "108674": "中共中央",
  "108675": "刃",
  "108676": "哄",
  "108677": "在他的",
  "108678": "專業",
  "108679": "场面",
  "108680": "邻居",
  "108681": "痒",
  "108682": "妄",
  "108683": "外科",
  "108684": "不适",
  "108685": "举办的",
  "108686": "邹",
  "108687": "党的建设",
  "108688": "發表",
  "108689": "跨界",
  "108690": "沉淀",
  "108691": "大片",
  "108692": "越高",
  "108693": "将是",
  "108694": "觉醒",
  "108695": "储存",
  "108696": "增大",
  "108697": "不让",
  "108698": "整形",
  "108699": "平台上",
  "108700": "几位",
  "108701": "诉求",
  "108702": "好不好",
  "108703": "圍",
  "108704": "文本",
  "108705": "進入",
  "108706": "納",
  "108707": "根據",
  "108708": "草案",
  "108709": "六个",
  "108710": "勿",
  "108711": "制成",
  "108712": "饮水",
  "108713": "永恒",
  "108714": "自杀",
  "108715": "司马",
  "108716": "难点",
  "108717": "为我们",
  "108718": "弧",
  "108719": "剩下的",
  "108720": "准备好",
  "108721": "的最佳",
  "108722": "联合会",
  "108723": "患者的",
  "108724": "我不知道",
  "108725": "下一个",
  "108726": "发展方向",
  "108727": "笨",
  "108728": "所以我们",
  "108729": "写了",
  "108730": "造成了",
  "108731": "沙漠",
  "108732": "筛选",
  "108733": "灾区",
  "108734": "上看",
  "108735": "酶",
  "108736": "滚动",
  "108737": "难免",
  "108738": "吉利",
  "108739": "一一",
  "108740": "精密",
  "108741": "伸手",
  "108742": "礼仪",
  "108743": "全是",
  "108744": "越大",
  "108745": "中标",
  "108746": "取决",
  "108747": "取决于",
  "108748": "途中",
  "108749": "讨厌",
  "108750": "手册",
  "108751": "第九",
  "108752": "孔子",
  "108753": "然後",
  "108754": "一共",
  "108755": "海报",
  "108756": "款式",
  "108757": "整天",
  "108758": "边界",
  "108759": "路边",
  "108760": "晋级",
  "108761": "吐槽",
  "108762": "的关注",
  "108763": "我没有",
  "108764": "就是在",
  "108765": "目的是",
  "108766": "即使是",
  "108767": "顶尖",
  "108768": "已经在",
  "108769": "安全隐患",
  "108770": "标杆",
  "108771": "南通",
  "108772": "会对",
  "108773": "座位",
  "108774": "赢得了",
  "108775": "原来的",
  "108776": "身为",
  "108777": "书店",
  "108778": "袭击",
  "108779": "今晚",
  "108780": "以色",
  "108781": "以色列",
  "108782": "抖音",
  "108783": "却没有",
  "108784": "丧失",
  "108785": "的局面",
  "108786": "十四五",
  "108787": "等相关",
  "108788": "汇总",
  "108789": "外表",
  "108790": "为民",
  "108791": "震惊",
  "108792": "套路",
  "108793": "犯罪嫌疑",
  "108794": "将以",
  "108795": "率领",
  "108796": "酒吧",
  "108797": "行业发展",
  "108798": "年至",
  "108799": "器材",
  "108800": "和技术",
  "108801": "最小",
  "108802": "这一切",
  "108803": "职称",
  "108804": "当作",
  "108805": "掀起",
  "108806": "咋",
  "108807": "中部",
  "108808": "手臂",
  "108809": "罢了",
  "108810": "媳妇",
  "108811": "洽谈",
  "108812": "时代中国",
  "108813": "人生的",
  "108814": "极限",
  "108815": "禄",
  "108816": "区政府",
  "108817": "本钱",
  "108818": "礼品",
  "108819": "的那个",
  "108820": "侦查",
  "108821": "太多的",
  "108822": "实施方案",
  "108823": "高标准",
  "108824": "指挥部",
  "108825": "倾斜",
  "108826": "特色社会",
  "108827": "結果",
  "108828": "钻石",
  "108829": "移植",
  "108830": "特种",
  "108831": "自愿",
  "108832": "拜登",
  "108833": "单身",
  "108834": "却又",
  "108835": "別人",
  "108836": "合规",
  "108837": "机电",
  "108838": "特意",
  "108839": "当前位置",
  "108840": "买家",
  "108841": "合约",
  "108842": "肩膀",
  "108843": "为准",
  "108844": "家装",
  "108845": "的热情",
  "108846": "非遗",
  "108847": "的魅力",
  "108848": "原告",
  "108849": "社会各界",
  "108850": "买的",
  "108851": "多吃",
  "108852": "雕塑",
  "108853": "起义",
  "108854": "加剧",
  "108855": "那一刻",
  "108856": "将进一步",
  "108857": "桂林",
  "108858": "更强",
  "108859": "对企业",
  "108860": "无意",
  "108861": "习近平新",
  "108862": "流失",
  "108863": "微软",
  "108864": "相对于",
  "108865": "座谈会",
  "108866": "主营业",
  "108867": "主营业务",
  "108868": "私募",
  "108869": "展示了",
  "108870": "常态化",
  "108871": "貴",
  "108872": "符号",
  "108873": "年轻的",
  "108874": "就需要",
  "108875": "也曾",
  "108876": "的情绪",
  "108877": "达标",
  "108878": "臨",
  "108879": "位居",
  "108880": "仅为",
  "108881": "首家",
  "108882": "阴阳",
  "108883": "不再是",
  "108884": "因为它",
  "108885": "企业在",
  "108886": "瘾",
  "108887": "听见",
  "108888": "原有",
  "108889": "制裁",
  "108890": "寂寞",
  "108891": "通过对",
  "108892": "滑雪",
  "108893": "这张",
  "108894": "的理解",
  "108895": "新中国",
  "108896": "这儿",
  "108897": "低价",
  "108898": "想过",
  "108899": "的信心",
  "108900": "建筑物",
  "108901": "的颜色",
  "108902": "不应该",
  "108903": "无疑是",
  "108904": "引起了",
  "108905": "全员",
  "108906": "杰出",
  "108907": "这是我",
  "108908": "誰",
  "108909": "蘇",
  "108910": "阵地",
  "108911": "充值",
  "108912": "矿业",
  "108913": "着他",
  "108914": "信访",
  "108915": "万达",
  "108916": "摩擦",
  "108917": "开端",
  "108918": "菲律",
  "108919": "菲律宾",
  "108920": "车子",
  "108921": "本身的",
  "108922": "火车站",
  "108923": "常州",
  "108924": "为代表",
  "108925": "为代表的",
  "108926": "广电",
  "108927": "亲人",
  "108928": "右手",
  "108929": "集装",
  "108930": "集装箱",
  "108931": "的印象",
  "108932": "機會",
  "108933": "匆匆",
  "108934": "光电",
  "108935": "大方",
  "108936": "还未",
  "108937": "利好",
  "108938": "绝大多数",
  "108939": "在这种",
  "108940": "一组",
  "108941": "新股",
  "108942": "转发",
  "108943": "法庭",
  "108944": "无所",
  "108945": "道路上",
  "108946": "矿山",
  "108947": "葉",
  "108948": "收回",
  "108949": "称之",
  "108950": "称之为",
  "108951": "揭露",
  "108952": "口岸",
  "108953": "吼",
  "108954": "心想",
  "108955": "的梦想",
  "108956": "雯",
  "108957": "之初",
  "108958": "奖项",
  "108959": "订阅",
  "108960": "蓝天",
  "108961": "坦克",
  "108962": "立案",
  "108963": "联手",
  "108964": "但是我",
  "108965": "帮我",
  "108966": "仅代表",
  "108967": "说我",
  "108968": "的趋势",
  "108969": "比较大",
  "108970": "走廊",
  "108971": "重点项目",
  "108972": "赌场",
  "108973": "名片",
  "108974": "感叹",
  "108975": "在地上",
  "108976": "发热",
  "108977": "范畴",
  "108978": "的道路",
  "108979": "金色",
  "108980": "他又",
  "108981": "会产生",
  "108982": "民国",
  "108983": "官方网站",
  "108984": "收益率",
  "108985": "的到来",
  "108986": "的办法",
  "108987": "改制",
  "108988": "万科",
  "108989": "不予",
  "108990": "这些问题",
  "108991": "爱上",
  "108992": "球场",
  "108993": "责令",
  "108994": "授课",
  "108995": "在香港",
  "108996": "细腻",
  "108997": "多万",
  "108998": "同年",
  "108999": "大使",
  "109000": "斋",
  "109001": "也为",
  "109002": "惠州",
  "109003": "吉祥",
  "109004": "田园",
  "109005": "国家队",
  "109006": "重生",
  "109007": "在其",
  "109008": "香味",
  "109009": "负荷",
  "109010": "亲切",
  "109011": "自豪",
  "109012": "没错",
  "109013": "因为在",
  "109014": "星星",
  "109015": "邑",
  "109016": "还有很多",
  "109017": "摩托",
  "109018": "摩托车",
  "109019": "步行",
  "109020": "管理体系",
  "109021": "脚下",
  "109022": "過去",
  "109023": "汉语",
  "109024": "对不起",
  "109025": "的经历",
  "109026": "及相关",
  "109027": "不少人",
  "109028": "重磅",
  "109029": "劳动者",
  "109030": "大力发展",
  "109031": "怎么做",
  "109032": "狗狗",
  "109033": "东南亚",
  "109034": "勇于",
  "109035": "公開",
  "109036": "瓷砖",
  "109037": "参照",
  "109038": "广播电视",
  "109039": "举动",
  "109040": "江西省",
  "109041": "效能",
  "109042": "唯有",
  "109043": "面貌",
  "109044": "自动驾驶",
  "109045": "榜单",
  "109046": "当我们",
  "109047": "仲裁",
  "109048": "木材",
  "109049": "米兰",
  "109050": "白银",
  "109051": "的人都",
  "109052": "就像是",
  "109053": "步入",
  "109054": "占用",
  "109055": "击败",
  "109056": "让大家",
  "109057": "会让你",
  "109058": "县政府",
  "109059": "要用",
  "109060": "等形式",
  "109061": "升高",
  "109062": "责任感",
  "109063": "备用",
  "109064": "他认为",
  "109065": "清华大学",
  "109066": "他自己",
  "109067": "閱讀",
  "109068": "太平洋",
  "109069": "锁定",
  "109070": "筆",
  "109071": "这片",
  "109072": "执政",
  "109073": "返回搜狐",
  "109074": "就此",
  "109075": "遇到了",
  "109076": "开幕式",
  "109077": "管理部门",
  "109078": "姿势",
  "109079": "设想",
  "109080": "四季",
  "109081": "技术人员",
  "109082": "差点",
  "109083": "辞职",
  "109084": "老師",
  "109085": "的感受",
  "109086": "也非常",
  "109087": "年上半年",
  "109088": "怪物",
  "109089": "范文",
  "109090": "战役",
  "109091": "含义",
  "109092": "全过程",
  "109093": "而非",
  "109094": "通讯员",
  "109095": "这样才能",
  "109096": "机组",
  "109097": "裏",
  "109098": "當然",
  "109099": "赌博",
  "109100": "各有",
  "109101": "工作机制",
  "109102": "事后",
  "109103": "剧院",
  "109104": "届时",
  "109105": "嘴里",
  "109106": "主线",
  "109107": "一圈",
  "109108": "主要原因",
  "109109": "尸体",
  "109110": "医疗器械",
  "109111": "你怎么",
  "109112": "但由于",
  "109113": "时空",
  "109114": "男朋友",
  "109115": "甜蜜",
  "109116": "高地",
  "109117": "晖",
  "109118": "蒐集",
  "109119": "凝聚力",
  "109120": "备受",
  "109121": "文创",
  "109122": "马来",
  "109123": "马来西亚",
  "109124": "柴油",
  "109125": "使人",
  "109126": "教会",
  "109127": "秋天",
  "109128": "明珠",
  "109129": "六十",
  "109130": "环境中",
  "109131": "清晨",
  "109132": "积极参与",
  "109133": "巅峰",
  "109134": "为期",
  "109135": "签字",
  "109136": "感激",
  "109137": "秋季",
  "109138": "村子",
  "109139": "梅西",
  "109140": "暴雨",
  "109141": "生活在",
  "109142": "窗户",
  "109143": "恶劣",
  "109144": "纯粹",
  "109145": "在接受",
  "109146": "没能",
  "109147": "行人",
  "109148": "勺",
  "109149": "拨打",
  "109150": "作出了",
  "109151": "的主题",
  "109152": "未來",
  "109153": "中最",
  "109154": "澜",
  "109155": "高血压",
  "109156": "兴起",
  "109157": "正能量",
  "109158": "培训班",
  "109159": "接入",
  "109160": "然后再",
  "109161": "学生们",
  "109162": "领先的",
  "109163": "火热",
  "109164": "专职",
  "109165": "或者说",
  "109166": "建設",
  "109167": "黏",
  "109168": "对公司",
  "109169": "特有的",
  "109170": "光荣",
  "109171": "当场",
  "109172": "面子",
  "109173": "资产管理",
  "109174": "时期的",
  "109175": "瞎",
  "109176": "华东",
  "109177": "又一次",
  "109178": "胎儿",
  "109179": "定点",
  "109180": "头痛",
  "109181": "液体",
  "109182": "是一位",
  "109183": "帽子",
  "109184": "年起",
  "109185": "不低于",
  "109186": "较少",
  "109187": "面临着",
  "109188": "层层",
  "109189": "蝴蝶",
  "109190": "艰苦",
  "109191": "阿根",
  "109192": "阿根廷",
  "109193": "概括",
  "109194": "请问",
  "109195": "起床",
  "109196": "局局长",
  "109197": "稳健",
  "109198": "如果我们",
  "109199": "酒精",
  "109200": "户口",
  "109201": "感悟",
  "109202": "我们需要",
  "109203": "技艺",
  "109204": "自媒体",
  "109205": "进化",
  "109206": "激烈的",
  "109207": "体温",
  "109208": "蚕",
  "109209": "致辞",
  "109210": "宪法",
  "109211": "一等奖",
  "109212": "瓶颈",
  "109213": "惠民",
  "109214": "走路",
  "109215": "现任",
  "109216": "商量",
  "109217": "下车",
  "109218": "删",
  "109219": "責任",
  "109220": "融合发展",
  "109221": "素材",
  "109222": "油价",
  "109223": "做人",
  "109224": "瞪",
  "109225": "改革创新",
  "109226": "的区别",
  "109227": "跨境电商",
  "109228": "涉及到",
  "109229": "托管",
  "109230": "我还是",
  "109231": "坐标",
  "109232": "网讯",
  "109233": "当地的",
  "109234": "追溯",
  "109235": "土耳",
  "109236": "土耳其",
  "109237": "底下",
  "109238": "几十年",
  "109239": "穿过",
  "109240": "生态文明",
  "109241": "推�",
  "109242": "推薦",
  "109243": "順",
  "109244": "咳嗽",
  "109245": "分成",
  "109246": "痕迹",
  "109247": "户籍",
  "109248": "都不能",
  "109249": "晚会",
  "109250": "倩",
  "109251": "体力",
  "109252": "这个职业",
  "109253": "无形",
  "109254": "只想",
  "109255": "进取",
  "109256": "杀死",
  "109257": "脊",
  "109258": "云南省",
  "109259": "未知",
  "109260": "美联",
  "109261": "美联储",
  "109262": "外形",
  "109263": "诱惑",
  "109264": "監",
  "109265": "行使",
  "109266": "堆积",
  "109267": "熟练",
  "109268": "阐述",
  "109269": "最大限度",
  "109270": "巡查",
  "109271": "夺冠",
  "109272": "企业文化",
  "109273": "狮子",
  "109274": "保守",
  "109275": "为核心的",
  "109276": "扩散",
  "109277": "制造商",
  "109278": "柔软",
  "109279": "为一体的",
  "109280": "游玩",
  "109281": "生病",
  "109282": "幫助",
  "109283": "唱歌",
  "109284": "才可以",
  "109285": "宽松",
  "109286": "要比",
  "109287": "是怎样",
  "109288": "灰色",
  "109289": "王国",
  "109290": "搅拌",
  "109291": "计量",
  "109292": "周围的",
  "109293": "智能手机",
  "109294": "常务",
  "109295": "常务副",
  "109296": "驴",
  "109297": "将近",
  "109298": "寻常",
  "109299": "中国市场",
  "109300": "容器",
  "109301": "山上",
  "109302": "背后的",
  "109303": "亲密",
  "109304": "所以说",
  "109305": "鎮",
  "109306": "的理由",
  "109307": "大城市",
  "109308": "常年",
  "109309": "旅游业",
  "109310": "就是这样",
  "109311": "再来",
  "109312": "高位",
  "109313": "内饰",
  "109314": "构造",
  "109315": "一起来",
  "109316": "申請",
  "109317": "已经开始",
  "109318": "的动作",
  "109319": "被迫",
  "109320": "遍布",
  "109321": "剖析",
  "109322": "小事",
  "109323": "心中的",
  "109324": "体制改革",
  "109325": "皇家",
  "109326": "教堂",
  "109327": "吃完",
  "109328": "国民党",
  "109329": "明确了",
  "109330": "发展规划",
  "109331": "第一步",
  "109332": "得起",
  "109333": "在哪",
  "109334": "的路上",
  "109335": "黔",
  "109336": "當時",
  "109337": "大力支持",
  "109338": "双重",
  "109339": "知道自己",
  "109340": "合作协议",
  "109341": "气势",
  "109342": "长效机制",
  "109343": "罕见",
  "109344": "回来了",
  "109345": "他会",
  "109346": "中新",
  "109347": "中新网",
  "109348": "的商品",
  "109349": "赠送",
  "109350": "決定",
  "109351": "市场监管",
  "109352": "留学生",
  "109353": "电压",
  "109354": "亚马",
  "109355": "亚马逊",
  "109356": "还是比较",
  "109357": "促进了",
  "109358": "流入",
  "109359": "摄像",
  "109360": "摄像头",
  "109361": "提及",
  "109362": "发掘",
  "109363": "找出",
  "109364": "條件",
  "109365": "繼續",
  "109366": "我喜欢",
  "109367": "奎",
  "109368": "榜样",
  "109369": "开花",
  "109370": "沉重",
  "109371": "基准",
  "109372": "仅仅是",
  "109373": "轨道交通",
  "109374": "唐山",
  "109375": "等一系列",
  "109376": "不过是",
  "109377": "存在着",
  "109378": "花生",
  "109379": "夷",
  "109380": "终究",
  "109381": "也是一个",
  "109382": "十字",
  "109383": "薪酬",
  "109384": "伤心",
  "109385": "春秋",
  "109386": "冷却",
  "109387": "精灵",
  "109388": "的地图",
  "109389": "比特",
  "109390": "比特币",
  "109391": "性别",
  "109392": "余万元",
  "109393": "不忘初心",
  "109394": "心疼",
  "109395": "曲线",
  "109396": "高低",
  "109397": "規定",
  "109398": "景色",
  "109399": "要说",
  "109400": "公司将",
  "109401": "液压",
  "109402": "违约",
  "109403": "厚度",
  "109404": "庞大的",
  "109405": "还是很",
  "109406": "首先是",
  "109407": "絲",
  "109408": "务实",
  "109409": "並且",
  "109410": "增进",
  "109411": "组织开展",
  "109412": "起来了",
  "109413": "较小",
  "109414": "导游",
  "109415": "两地",
  "109416": "翘",
  "109417": "灿烂",
  "109418": "风采",
  "109419": "支线",
  "109420": "支线任务",
  "109421": "娱乐圈",
  "109422": "天津市",
  "109423": "包围",
  "109424": "本赛季",
  "109425": "重要讲话",
  "109426": "双向",
  "109427": "华丽",
  "109428": "锤",
  "109429": "儿女",
  "109430": "卖出",
  "109431": "來說",
  "109432": "介绍一下",
  "109433": "否认",
  "109434": "勝",
  "109435": "普通人",
  "109436": "的动力",
  "109437": "涨停",
  "109438": "基金管理",
  "109439": "一个重要",
  "109440": "运河",
  "109441": "煞",
  "109442": "财政部",
  "109443": "行业协会",
  "109444": "都将",
  "109445": "言论",
  "109446": "下來",
  "109447": "墨西",
  "109448": "墨西哥",
  "109449": "因为他们",
  "109450": "怎么回事",
  "109451": "加大对",
  "109452": "芭",
  "109453": "牌子",
  "109454": "会使",
  "109455": "妹子",
  "109456": "站长",
  "109457": "必备",
  "109458": "树木",
  "109459": "恶意",
  "109460": "河道",
  "109461": "富裕",
  "109462": "繁华",
  "109463": "代表团",
  "109464": "浑身",
  "109465": "首位",
  "109466": "航空公司",
  "109467": "電影",
  "109468": "专辑",
  "109469": "水源",
  "109470": "中毒",
  "109471": "並不",
  "109472": "而去",
  "109473": "郝",
  "109474": "于此",
  "109475": "文化建设",
  "109476": "肯定会",
  "109477": "希望大家",
  "109478": "描写",
  "109479": "低调",
  "109480": "新兴产业",
  "109481": "淄博",
  "109482": "放开",
  "109483": "的性格",
  "109484": "疾病的",
  "109485": "整顿",
  "109486": "线上线下",
  "109487": "选项",
  "109488": "的认可",
  "109489": "整齐",
  "109490": "甚么",
  "109491": "省内",
  "109492": "古人",
  "109493": "民俗",
  "109494": "牡丹",
  "109495": "门窗",
  "109496": "那样的",
  "109497": "监事会",
  "109498": "翡翠",
  "109499": "禹",
  "109500": "千万不要",
  "109501": "收缩",
  "109502": "的文字",
  "109503": "和尚",
  "109504": "指令",
  "109505": "共产党员",
  "109506": "的父亲",
  "109507": "完工",
  "109508": "务工",
  "109509": "马拉",
  "109510": "马拉松",
  "109511": "测评",
  "109512": "岚",
  "109513": "不做",
  "109514": "七年",
  "109515": "均价",
  "109516": "主观",
  "109517": "很不错",
  "109518": "股东大会",
  "109519": "五一",
  "109520": "风吹",
  "109521": "开采",
  "109522": "这么大",
  "109523": "能看到",
  "109524": "考评",
  "109525": "即便是",
  "109526": "现代农业",
  "109527": "比较高",
  "109528": "要看",
  "109529": "没了",
  "109530": "解決",
  "109531": "环比",
  "109532": "冲动",
  "109533": "深夜",
  "109534": "几千",
  "109535": "俏",
  "109536": "网民",
  "109537": "就没",
  "109538": "他表示",
  "109539": "量子",
  "109540": "早餐加盟",
  "109541": "半岛",
  "109542": "搞笑",
  "109543": "上报",
  "109544": "審",
  "109545": "预订",
  "109546": "蜂蜜",
  "109547": "查找",
  "109548": "众所",
  "109549": "众所周",
  "109550": "众所周知",
  "109551": "早日",
  "109552": "发扬",
  "109553": "和个人",
  "109554": "加入了",
  "109555": "單位",
  "109556": "分明",
  "109557": "第一批",
  "109558": "美军",
  "109559": "杀手",
  "109560": "门外",
  "109561": "商圈",
  "109562": "一刻",
  "109563": "的眼神",
  "109564": "霄",
  "109565": "些什么",
  "109566": "加深",
  "109567": "每位",
  "109568": "市面上",
  "109569": "叔叔",
  "109570": "的那种",
  "109571": "粤港澳",
  "109572": "贴心",
  "109573": "文化产业",
  "109574": "红旗",
  "109575": "嘉兴",
  "109576": "收盘",
  "109577": "完成后",
  "109578": "企业管理",
  "109579": "纵横",
  "109580": "不信",
  "109581": "成都市",
  "109582": "洗澡",
  "109583": "举行的",
  "109584": "產生",
  "109585": "穿上",
  "109586": "刚好",
  "109587": "光线",
  "109588": "打架",
  "109589": "这本书",
  "109590": "售后服务",
  "109591": "几分",
  "109592": "上次",
  "109593": "不分",
  "109594": "产后",
  "109595": "避开",
  "109596": "终极",
  "109597": "代表大会",
  "109598": "演技",
  "109599": "回购",
  "109600": "学费",
  "109601": "阻碍",
  "109602": "一大批",
  "109603": "竣工",
  "109604": "决定了",
  "109605": "但如果",
  "109606": "电流",
  "109607": "丝毫",
  "109608": "能够在",
  "109609": "销售收入",
  "109610": "在学校",
  "109611": "水准",
  "109612": "视线",
  "109613": "自在",
  "109614": "商业银行",
  "109615": "为了让",
  "109616": "獲得",
  "109617": "玩家朋友",
  "109618": "面膜",
  "109619": "分割",
  "109620": "剧本",
  "109621": "竭",
  "109622": "说得",
  "109623": "想知道",
  "109624": "的人物",
  "109625": "茅台",
  "109626": "同一个",
  "109627": "数据中心",
  "109628": "甄",
  "109629": "喜悦",
  "109630": "下来的",
  "109631": "定向",
  "109632": "极具",
  "109633": "的土地",
  "109634": "那個",
  "109635": "摄入",
  "109636": "了我的",
  "109637": "马路",
  "109638": "全社会",
  "109639": "议案",
  "109640": "屋子",
  "109641": "名叫",
  "109642": "匪",
  "109643": "在外面",
  "109644": "华南",
  "109645": "发货",
  "109646": "寒冷",
  "109647": "高等教育",
  "109648": "详细的",
  "109649": "个项目",
  "109650": "生产力",
  "109651": "时常",
  "109652": "就會",
  "109653": "万股",
  "109654": "陌生人",
  "109655": "描绘",
  "109656": "当然是",
  "109657": "拉动",
  "109658": "链条",
  "109659": "扣除",
  "109660": "一直都",
  "109661": "小孩子",
  "109662": "伤口",
  "109663": "第二届",
  "109664": "购置",
  "109665": "皇马",
  "109666": "无聊",
  "109667": "表决",
  "109668": "诸如",
  "109669": "响起",
  "109670": "风暴",
  "109671": "一流的",
  "109672": "編",
  "109673": "解放军",
  "109674": "室外",
  "109675": "就这么",
  "109676": "島",
  "109677": "所有人都",
  "109678": "搜索引擎",
  "109679": "的成本",
  "109680": "党政",
  "109681": "发行人",
  "109682": "的事实",
  "109683": "对该",
  "109684": "受损",
  "109685": "俄乌",
  "109686": "鲜花",
  "109687": "农药",
  "109688": "极速",
  "109689": "急性",
  "109690": "两会",
  "109691": "一般来说",
  "109692": "海鲜",
  "109693": "冈",
  "109694": "用人",
  "109695": "用人单位",
  "109696": "倪",
  "109697": "優惠",
  "109698": "根源",
  "109699": "团购",
  "109700": "美洲",
  "109701": "下行",
  "109702": "年末",
  "109703": "蜡",
  "109704": "证件",
  "109705": "在我国",
  "109706": "不应",
  "109707": "按时",
  "109708": "堪称",
  "109709": "场上",
  "109710": "干部职工",
  "109711": "有很大的",
  "109712": "数字经济",
  "109713": "演练",
  "109714": "据统计",
  "109715": "往来",
  "109716": "广告服务",
  "109717": "的距离",
  "109718": "歸",
  "109719": "言语",
  "109720": "被誉",
  "109721": "被誉为",
  "109722": "勉强",
  "109723": "尊敬",
  "109724": "万亿元",
  "109725": "中国国际",
  "109726": "干预",
  "109727": "年产",
  "109728": "耕地",
  "109729": "茎",
  "109730": "即是",
  "109731": "昨晚",
  "109732": "成为一个",
  "109733": "纠正",
  "109734": "命名",
  "109735": "颁布",
  "109736": "猜测",
  "109737": "保護政策",
  "109738": "拢",
  "109739": "活泼",
  "109740": "等部门",
  "109741": "学到",
  "109742": "增值税",
[...]
